{
  "version": "1.0",
  "truncation": null,
  "padding": null,
  "added_tokens": [
    {
      "id": 0,
      "content": "<pad>",
      "single_word": false,
      "lstrip": false,
      "rstrip": false,
      "normalized": false,
      "special": true
    },
    {
      "id": 1,
      "content": "<s>",
      "single_word": false,
      "lstrip": false,
      "rstrip": false,
      "normalized": false,
      "special": true
    },
    {
      "id": 2,
      "content": "</s>",
      "single_word": false,
      "lstrip": false,
      "rstrip": false,
      "normalized": false,
      "special": true
    },
    {
      "id": 3,
      "content": "<unk>",
      "single_word": false,
      "lstrip": false,
      "rstrip": false,
      "normalized": false,
      "special": true
    },
    {
      "id": 4,
      "content": "<|endoftext|>",
      "single_word": false,
      "lstrip": false,
      "rstrip": false,
      "normalized": false,
      "special": true
    },
    {
      "id": 5,
      "content": "<|im_start|>",
      "single_word": false,
      "lstrip": false,
      "rstrip": false,
      "normalized": false,
      "special": true
    },
    {
      "id": 6,
      "content": "<|im_end|>",
      "single_word": false,
      "lstrip": false,
      "rstrip": false,
      "normalized": false,
      "special": true
    }
  ],
  "normalizer": {
    "type": "Sequence",
    "normalizers": [
      {
        "type": "NFKC"
      }
    ]
  },
  "pre_tokenizer": {
    "type": "ByteLevel",
    "add_prefix_space": true,
    "trim_offsets": true,
    "use_regex": true
  },
  "post_processor": {
    "type": "TemplateProcessing",
    "single": [
      {
        "SpecialToken": {
          "id": "<s>",
          "type_id": 0
        }
      },
      {
        "Sequence": {
          "id": "A",
          "type_id": 0
        }
      },
      {
        "SpecialToken": {
          "id": "</s>",
          "type_id": 0
        }
      }
    ],
    "pair": [
      {
        "SpecialToken": {
          "id": "<s>",
          "type_id": 0
        }
      },
      {
        "Sequence": {
          "id": "A",
          "type_id": 0
        }
      },
      {
        "SpecialToken": {
          "id": "</s>",
          "type_id": 0
        }
      },
      {
        "Sequence": {
          "id": "B",
          "type_id": 1
        }
      },
      {
        "SpecialToken": {
          "id": "</s>",
          "type_id": 1
        }
      }
    ],
    "special_tokens": {
      "</s>": {
        "id": "</s>",
        "ids": [
          2
        ],
        "tokens": [
          "</s>"
        ]
      },
      "<s>": {
        "id": "<s>",
        "ids": [
          1
        ],
        "tokens": [
          "<s>"
        ]
      }
    }
  },
  "decoder": {
    "type": "ByteLevel",
    "add_prefix_space": true,
    "trim_offsets": true,
    "use_regex": true
  },
  "model": {
    "type": "BPE",
    "dropout": null,
    "unk_token": "<unk>",
    "continuing_subword_prefix": null,
    "end_of_word_suffix": null,
    "fuse_unk": false,
    "byte_fallback": false,
    "ignore_merges": false,
    "vocab": {
      "<pad>": 0,
      "<s>": 1,
      "</s>": 2,
      "<unk>": 3,
      "<|endoftext|>": 4,
      "<|im_start|>": 5,
      "<|im_end|>": 6,
      "!": 7,
      "\"": 8,
      "#": 9,
      "$": 10,
      "%": 11,
      "&": 12,
      "'": 13,
      "(": 14,
      ")": 15,
      "*": 16,
      "+": 17,
      ",": 18,
      "-": 19,
      ".": 20,
      "/": 21,
      "0": 22,
      "1": 23,
      "2": 24,
      "3": 25,
      "4": 26,
      "5": 27,
      "6": 28,
      "7": 29,
      "8": 30,
      "9": 31,
      ":": 32,
      ";": 33,
      "<": 34,
      "=": 35,
      ">": 36,
      "?": 37,
      "@": 38,
      "A": 39,
      "B": 40,
      "C": 41,
      "D": 42,
      "E": 43,
      "F": 44,
      "G": 45,
      "H": 46,
      "I": 47,
      "J": 48,
      "K": 49,
      "L": 50,
      "M": 51,
      "N": 52,
      "O": 53,
      "P": 54,
      "Q": 55,
      "R": 56,
      "S": 57,
      "T": 58,
      "U": 59,
      "V": 60,
      "W": 61,
      "X": 62,
      "Y": 63,
      "Z": 64,
      "[": 65,
      "\\": 66,
      "]": 67,
      "^": 68,
      "_": 69,
      "`": 70,
      "a": 71,
      "b": 72,
      "c": 73,
      "d": 74,
      "e": 75,
      "f": 76,
      "g": 77,
      "h": 78,
      "i": 79,
      "j": 80,
      "k": 81,
      "l": 82,
      "m": 83,
      "n": 84,
      "o": 85,
      "p": 86,
      "q": 87,
      "r": 88,
      "s": 89,
      "t": 90,
      "u": 91,
      "v": 92,
      "w": 93,
      "x": 94,
      "y": 95,
      "z": 96,
      "{": 97,
      "|": 98,
      "}": 99,
      "~": 100,
      "¡": 101,
      "¢": 102,
      "£": 103,
      "¤": 104,
      "¥": 105,
      "¦": 106,
      "§": 107,
      "¨": 108,
      "©": 109,
      "ª": 110,
      "«": 111,
      "¬": 112,
      "®": 113,
      "¯": 114,
      "°": 115,
      "±": 116,
      "²": 117,
      "³": 118,
      "´": 119,
      "µ": 120,
      "¶": 121,
      "·": 122,
      "¸": 123,
      "¹": 124,
      "º": 125,
      "»": 126,
      "¼": 127,
      "½": 128,
      "¾": 129,
      "¿": 130,
      "À": 131,
      "Á": 132,
      "Â": 133,
      "Ã": 134,
      "Ä": 135,
      "Å": 136,
      "Æ": 137,
      "Ç": 138,
      "È": 139,
      "É": 140,
      "Ê": 141,
      "Ë": 142,
      "Ì": 143,
      "Í": 144,
      "Î": 145,
      "Ï": 146,
      "Ð": 147,
      "Ñ": 148,
      "Ò": 149,
      "Ó": 150,
      "Ô": 151,
      "Õ": 152,
      "Ö": 153,
      "×": 154,
      "Ø": 155,
      "Ù": 156,
      "Ú": 157,
      "Û": 158,
      "Ü": 159,
      "Ý": 160,
      "Þ": 161,
      "ß": 162,
      "à": 163,
      "á": 164,
      "â": 165,
      "ã": 166,
      "ä": 167,
      "å": 168,
      "æ": 169,
      "ç": 170,
      "è": 171,
      "é": 172,
      "ê": 173,
      "ë": 174,
      "ì": 175,
      "í": 176,
      "î": 177,
      "ï": 178,
      "ð": 179,
      "ñ": 180,
      "ò": 181,
      "ó": 182,
      "ô": 183,
      "õ": 184,
      "ö": 185,
      "÷": 186,
      "ø": 187,
      "ù": 188,
      "ú": 189,
      "û": 190,
      "ü": 191,
      "ý": 192,
      "þ": 193,
      "ÿ": 194,
      "Ā": 195,
      "ā": 196,
      "Ă": 197,
      "ă": 198,
      "Ą": 199,
      "ą": 200,
      "Ć": 201,
      "ć": 202,
      "Ĉ": 203,
      "ĉ": 204,
      "Ċ": 205,
      "ċ": 206,
      "Č": 207,
      "č": 208,
      "Ď": 209,
      "ď": 210,
      "Đ": 211,
      "đ": 212,
      "Ē": 213,
      "ē": 214,
      "Ĕ": 215,
      "ĕ": 216,
      "Ė": 217,
      "ė": 218,
      "Ę": 219,
      "ę": 220,
      "Ě": 221,
      "ě": 222,
      "Ĝ": 223,
      "ĝ": 224,
      "Ğ": 225,
      "ğ": 226,
      "Ġ": 227,
      "ġ": 228,
      "Ģ": 229,
      "ģ": 230,
      "Ĥ": 231,
      "ĥ": 232,
      "Ħ": 233,
      "ħ": 234,
      "Ĩ": 235,
      "ĩ": 236,
      "Ī": 237,
      "ī": 238,
      "Ĭ": 239,
      "ĭ": 240,
      "Į": 241,
      "į": 242,
      "İ": 243,
      "ı": 244,
      "Ĳ": 245,
      "ĳ": 246,
      "Ĵ": 247,
      "ĵ": 248,
      "Ķ": 249,
      "ķ": 250,
      "ĸ": 251,
      "Ĺ": 252,
      "ĺ": 253,
      "Ļ": 254,
      "ļ": 255,
      "Ľ": 256,
      "ľ": 257,
      "Ŀ": 258,
      "ŀ": 259,
      "Ł": 260,
      "ł": 261,
      "Ń": 262,
      "Ġì": 263,
      "ìĿ": 264,
      "Ġë": 265,
      "Ġt": 266,
      "he": 267,
      "Ġa": 268,
      "in": 269,
      "er": 270,
      "on": 271,
      "íķ": 272,
      "Ġthe": 273,
      "Ġê": 274,
      "re": 275,
      "ìĹ": 276,
      "an": 277,
      "Ġo": 278,
      "en": 279,
      "at": 280,
      "ëĭ": 281,
      "ed": 282,
      "or": 283,
      "st": 284,
      "al": 285,
      "Ġw": 286,
      "ar": 287,
      "it": 288,
      "Ġí": 289,
      "Ġof": 290,
      "ëĭ¤": 291,
      "ìĿĺ": 292,
      "Ġs": 293,
      "nd": 294,
      "ìĿ´": 295,
      "Ġc": 296,
      "Ġin": 297,
      "es": 298,
      "is": 299,
      "Ġf": 300,
      "Ġ1": 301,
      "ìĹĲ": 302,
      "Ġb": 303,
      "ê³": 304,
      "ic": 305,
      "ìĦ": 306,
      "ëĬ": 307,
      "Ġp": 308,
      "ëĬĶ": 309,
      "ing": 310,
      "ë¡": 311,
      "Ġand": 312,
      "ion": 313,
      "ro": 314,
      "as": 315,
      "ìł": 316,
      "ë¡ľ": 317,
      "ĠìĿ": 318,
      "ê°": 319,
      "íķĺ": 320,
      "le": 321,
      "ìŀ": 322,
      "ĠS": 323,
      "Ġto": 324,
      "Ġm": 325,
      "êµ": 326,
      "Ġ2": 327,
      "ìĿĦ": 328,
      "Ġ(": 329,
      "ì§": 330,
      "ĠC": 331,
      "Ġd": 332,
      "ĠA": 333,
      "ë¥": 334,
      "ëħ": 335,
      "ou": 336,
      "ìľ": 337,
      "ë¦": 338,
      "ĠT": 339,
      "Ġìŀ": 340,
      "íķľ": 341,
      "ìĭ": 342,
      "il": 343,
      "ent": 344,
      "Ġh": 345,
      "ëı": 346,
      "¸°": 347,
      "Ĥ¬": 348,
      "ĮĢ": 349,
      "ëħĦ": 350,
      "ĠM": 351,
      "ìķ": 352,
      "Ġìł": 353,
      "ê³ł": 354,
      "am": 355,
      "om": 356,
      "el": 357,
      "ol": 358,
      "ìĬ": 359,
      "Ġ19": 360,
      "ê°Ģ": 361,
      "ìĦľ": 362,
      "ìĿĢ": 363,
      "Ġre": 364,
      "ìĽ": 365,
      "ĠB": 366,
      "00": 367,
      "ë¦¬": 368,
      "ëĵ": 369,
      "ct": 370,
      "ì§Ģ": 371,
      "Ġê°": 372,
      "Ġl": 373,
      "ìļ": 374,
      "ĠìĿ´": 375,
      "ìľ¼": 376,
      "ad": 377,
      "Īëĭ¤": 378,
      "Ġë°": 379,
      "ë¥¼": 380,
      "ê¸°": 381,
      "ĠP": 382,
      "ur": 383,
      "ìĸ": 384,
      "et": 385,
      "Ġìķ": 386,
      "ìĬ¤": 387,
      "ch": 388,
      "ìĺ": 389,
      "ation": 390,
      "Ġn": 391,
      "ëĤ": 392,
      "Ġe": 393,
      "ê²": 394,
      "ëıĦ": 395,
      "iv": 396,
      "Īĺ": 397,
      "ĠìĦ": 398,
      "ĠH": 399,
      "ĠI": 400,
      "Ġth": 401,
      "ë§": 402,
      "ers": 403,
      "ig": 404,
      "ĠìĹ": 405,
      "Ŀ¼": 406,
      "id": 407,
      "us": 408,
      "ëł": 409,
      "ë¶": 410,
      "ot": 411,
      "ĠR": 412,
      "ir": 413,
      "ly": 414,
      "ce": 415,
      "Ġwas": 416,
      "ìĿ¸": 417,
      "im": 418,
      "ìĭľ": 419,
      "ĠD": 420,
      "Ġfor": 421,
      "Ġìĭ": 422,
      "Ġê²": 423,
      "ëĿ¼": 424,
      "Ġon": 425,
      "ë©": 426,
      "ay": 427,
      "ìľ¼ë¡ľ": 428,
      "£¼": 429,
      "ĠL": 430,
      "ut": 431,
      "ìĿ¼": 432,
      "ĠF": 433,
      "ìĸ´": 434,
      "Ġg": 435,
      "Ġë§": 436,
      "ëĲ": 437,
      "ìĤ¬": 438,
      "ist": 439,
      "ĠThe": 440,
      "ë°": 441,
      "·¸": 442,
      "ra": 443,
      "Ġis": 444,
      "êµŃ": 445,
      "Ġê³": 446,
      "ow": 447,
      "ĠG": 448,
      "ìĹĲìĦľ": 449,
      "ëĮĢ": 450,
      "Ġas": 451,
      "âĢ": 452,
      "ìŀĲ": 453,
      "ĠN": 454,
      "Ġbe": 455,
      "ìĻ": 456,
      "un": 457,
      "ith": 458,
      "ĠW": 459,
      "Ġì§": 460,
      "ìĥ": 461,
      "ì¹": 462,
      "ë¬": 463,
      "íķ´": 464,
      "ë³": 465,
      "em": 466,
      "ĠëĮĢ": 467,
      "Ġst": 468,
      "ëŀ": 469,
      "Ġêµ": 470,
      "ul": 471,
      "th": 472,
      "her": 473,
      "Ġìĺ": 474,
      "ĠìĤ¬": 475,
      "and": 476,
      "ê³¼": 477,
      "Ġëĭ": 478,
      "ë¶Ģ": 479,
      "íĸ": 480,
      "ter": 481,
      "ĠE": 482,
      "ìĽĶ": 483,
      "íĻ": 484,
      "ëĤĺ": 485,
      "ë¯": 486,
      "Ġwith": 487,
      "ãĢ": 488,
      "ĠĊ": 489,
      "Ġby": 490,
      "um": 491,
      "íĺ": 492,
      "ĠJ": 493,
      "Ġìľ": 494,
      "ĠëĤ": 495,
      "Ġal": 496,
      "ìķĦ": 497,
      "Ġëı": 498,
      "os": 499,
      "Ġ200": 500,
      "19": 501,
      "ag": 502,
      "Ġê·¸": 503,
      "Ġë³": 504,
      "ver": 505,
      "ëĵ¤": 506,
      "Ġë¶": 507,
      "'s": 508,
      "Ġ\"": 509,
      "íķĻ": 510,
      "ë²": 511,
      "rom": 512,
      "ac": 513,
      "ì²": 514,
      "Ġ20": 515,
      "ëª": 516,
      "íĥ": 517,
      "ìĨ": 518,
      "op": 519,
      "ì£¼": 520,
      "íĬ": 521,
      "Ġan": 522,
      "ri": 523,
      "Ġat": 524,
      "Ġwh": 525,
      "ìĪĺ": 526,
      "Ġcon": 527,
      "¡°": 528,
      "ĠO": 529,
      "ìłķ": 530,
      "âĢĵ": 531,
      "ìŀ¥": 532,
      "ëĲĺ": 533,
      "ëį": 534,
      "Ġëª": 535,
      "ëŁ": 536,
      "ìĦ±": 537,
      "ĠK": 538,
      "ìĻĢ": 539,
      "Ġ-": 540,
      "od": 541,
      "¤ĳ": 542,
      "oc": 543,
      "ĠìĪĺ": 544,
      "ìłģ": 545,
      "Ġ3": 546,
      "Ġthat": 547,
      "Ġv": 548,
      "Ġde": 549,
      "Ġfrom": 550,
      "íĬ¸": 551,
      "êµ¬": 552,
      "ìĽĲ": 553,
      "ian": 554,
      "ìłĦ": 555,
      "ab": 556,
      "Ġhe": 557,
      "av": 558,
      "ain": 559,
      "ìĥģ": 560,
      "ìĺĢ": 561,
      "Ġê°Ģ": 562,
      "ity": 563,
      "ies": 564,
      "ê²Į": 565,
      "ĠU": 566,
      "Ġìĭľ": 567,
      "¹Ħ": 568,
      "íĻĶ": 569,
      "Ġì§Ģ": 570,
      "res": 571,
      "est": 572,
      "all": 573,
      "ĠìłĦ": 574,
      "Ġê¸°": 575,
      "if": 576,
      "Ġpro": 577,
      "ļĮ": 578,
      "Ġcom": 579,
      "ìĹĪëĭ¤": 580,
      "ìłľ": 581,
      "ĠìķĦ": 582,
      "ew": 583,
      "ëĵľ": 584,
      "art": 585,
      "ëıĻ": 586,
      "ate": 587,
      "ia": 588,
      "up": 589,
      "ĠìŀĪ": 590,
      "ort": 591,
      "ill": 592,
      "Ġit": 593,
      "ber": 594,
      "Ġìĥ": 595,
      "ud": 596,
      "Ġëĵ": 597,
      "Ġse": 598,
      "ìĹ¬": 599,
      "´Ģ": 600,
      "ard": 601,
      "pe": 602,
      "ìĿ´ëĭ¤": 603,
      "ë©°": 604,
      "Ġë¬": 605,
      "Ġíķĺ": 606,
      "êµĲ": 607,
      "ë¥´": 608,
      "ĠSt": 609,
      "ìļ°": 610,
      "igh": 611,
      "ak": 612,
      "Ġìļ": 613,
      "íĦ": 614,
      "),": 615,
      "Ġìłľ": 616,
      "ĽĦ": 617,
      "ì°": 618,
      "ìĤ": 619,
      "Ġor": 620,
      "Ġíķľ": 621,
      "ub": 622,
      "íĨ": 623,
      "ĶĦ": 624,
      "Ġíĺ": 625,
      "ĠìĿ¼": 626,
      "Ġì¶": 627,
      "ich": 628,
      "íļĮ": 629,
      "Ġ201": 630,
      "Ġìłķ": 631,
      "ì¹ĺ": 632,
      "ore": 633,
      "ĠìĨ": 634,
      "ast": 635,
      "ë¯¼": 636,
      "ld": 637,
      "ment": 638,
      "ĠíĻ": 639,
      "qu": 640,
      "Ġhis": 641,
      "ess": 642,
      "ap": 643,
      "ip": 644,
      "ant": 645,
      "Ġpl": 646,
      "ë©´": 647,
      "ë§Į": 648,
      "ĠìŀĪëĭ¤": 649,
      "ĠIn": 650,
      "Ġì²": 651,
      "ated": 652,
      "Ġare": 653,
      "ish": 654,
      "Ġì¤ĳ": 655,
      "se": 656,
      "íĦ°": 657,
      "ìĦł": 658,
      "ìļ©": 659,
      "Ġ4": 660,
      "Ġr": 661,
      "ov": 662,
      "ë¬¸": 663,
      "Ġëĭ¤": 664,
      "ge": 665,
      "ary": 666,
      "ive": 667,
      "ial": 668,
      "nt": 669,
      "Ġíķ": 670,
      "íķĺìĺĢ": 671,
      "ë§Ī": 672,
      "mer": 673,
      "Ġë¯": 674,
      "The": 675,
      "end": 676,
      "ĠCh": 677,
      "Ġex": 678,
      "Ġ199": 679,
      "ģ¬": 680,
      "ĠV": 681,
      "íĮ": 682,
      "ë£": 683,
      "Ġë²": 684,
      "og": 685,
      "ĠìŀĲ": 686,
      "ong": 687,
      "our": 688,
      "Ġìĸ": 689,
      "Ġch": 690,
      "ug": 691,
      "ìĭł": 692,
      "ĠìĬ": 693,
      "Ġë³´": 694,
      "Ġì£¼": 695,
      "ê³Ħ": 696,
      "Ġê²ĥ": 697,
      "ine": 698,
      "Ġê³µ": 699,
      "±°": 700,
      "ëªħ": 701,
      "ëĭĪ": 702,
      "ìĹŃ": 703,
      "ìĦ¸": 704,
      "ĠìĿ¸": 705,
      "íķĺëĬĶ": 706,
      "Ġ5": 707,
      "ell": 708,
      "Ġê²½": 709,
      "ere": 710,
      "Ġìľł": 711,
      "ĠãĢ": 712,
      "Ġíı": 713,
      "ëŁ¬": 714,
      "ìĤ°": 715,
      "ust": 716,
      "ks": 717,
      "und": 718,
      "ĠëĲ": 719,
      "20": 720,
      "ord": 721,
      "ction": 722,
      "ìľĦ": 723,
      "ame": 724,
      "ear": 725,
      "Ġì°": 726,
      "ì¡°": 727,
      "ë¯¸": 728,
      "uc": 729,
      "so": 730,
      "ê¸": 731,
      "ure": 732,
      "ĠâĢĵ": 733,
      "ical": 734,
      "ost": 735,
      "fer": 736,
      "ran": 737,
      "íĥĢ": 738,
      "íĸĪëĭ¤": 739,
      "ê³µ": 740,
      "Ġ18": 741,
      "íı": 742,
      "ire": 743,
      "ìĨĮ": 744,
      "Ġë¶Ģ": 745,
      "Ġëĵ±": 746,
      "êµ°": 747,
      "Ġwere": 748,
      "ì§Ħ": 749,
      "ĠìĻ": 750,
      "Ġle": 751,
      "ëĲľ": 752,
      "ep": 753,
      "ĠëıĻ": 754,
      "Ġì¡°": 755,
      "ĠìľĦ": 756,
      "Ġwhich": 757,
      "ë¹Ħ": 758,
      "ight": 759,
      "ie": 760,
      "ìĺ¤": 761,
      "ĠìĦł": 762,
      "Ġk": 763,
      "ãĢĭ": 764,
      "íģ¬": 765,
      "ë³´": 766,
      "Ġì¹": 767,
      "ue": 768,
      "íķĺê³ł": 769,
      "ther": 770,
      "¢ħ": 771,
      "ĠëĤĺ": 772,
      "Ġë¯¸": 773,
      "ì¶": 774,
      "ĠíĮ": 775,
      "cl": 776,
      "Ġalso": 777,
      "íķĺìĹ¬": 778,
      "Ġíĥ": 779,
      "Ġ6": 780,
      "ĠìĹ°": 781,
      "íķĺìĺĢëĭ¤": 782,
      "Ġê°ľ": 783,
      "rit": 784,
      "Ġcomp": 785,
      "Ġsh": 786,
      "ëłĪ": 787,
      "ces": 788,
      "Ġ:": 789,
      "ĠãĢĬ": 790,
      "ê°Ħ": 791,
      "ìĭĿ": 792,
      "íĤ": 793,
      "Ġìĺ¤": 794,
      "ĠìĨĮ": 795,
      "Ġìĺģ": 796,
      "ry": 797,
      "ff": 798,
      "200": 799,
      "ĠìĽ": 800,
      "Ġê³ł": 801,
      "are": 802,
      "ì¹´": 803,
      "Ġy": 804,
      "ĠUn": 805,
      "ign": 806,
      "Ġë§Ī": 807,
      "ì¡": 808,
      "êµŃìĿĺ": 809,
      "Ġëª¨": 810,
      "ass": 811,
      "ê´Ģ": 812,
      "ķĮ": 813,
      "ì¦": 814,
      "ìĹĪ": 815,
      "ĠêµŃ": 816,
      "ëĦ": 817,
      "ĠHe": 818,
      "ĠëıĦ": 819,
      "ous": 820,
      "Ġë°ľ": 821,
      "ìŀ¬": 822,
      "ê²½": 823,
      "íĺ¸": 824,
      "Ġêµ¬": 825,
      "port": 826,
      "ĠìĿĺ": 827,
      "ition": 828,
      "ê·¸": 829,
      "Ġ198": 830,
      "ëĭ¹": 831,
      "Ġ7": 832,
      "ric": 833,
      "ations": 834,
      "ĠĠ": 835,
      "Ġun": 836,
      "½Ķ": 837,
      "Ġìĭł": 838,
      "age": 839,
      "man": 840,
      "ìĿĮ": 841,
      "ĠìĦľ": 842,
      "ì²´": 843,
      "ide": 844,
      "irst": 845,
      "Ġnot": 846,
      "te": 847,
      "ŀĪ": 848,
      "ĠíĨ": 849,
      "ë³¸": 850,
      "pl": 851,
      "íĸī": 852,
      "ë¬´": 853,
      "ëį°": 854,
      "per": 855,
      "ĠëĮĢíķľ": 856,
      "ĳĲ": 857,
      "Ġë¹Ħ": 858,
      "Ġëį": 859,
      "ack": 860,
      "Ġus": 861,
      "ave": 862,
      "ĠìĦ¸": 863,
      "ëĭ¨": 864,
      "ê·": 865,
      "ìĥĿ": 866,
      "iz": 867,
      "íĽĦ": 868,
      "ìĹĲëĬĶ": 869,
      "Ġar": 870,
      "ory": 871,
      "Ġ8": 872,
      "ĳľ": 873,
      "Ġìĥģ": 874,
      "íķľëĭ¤": 875,
      "ĠìĬ¤": 876,
      "ts": 877,
      "ond": 878,
      "ĠY": 879,
      "land": 880,
      "ĠìĦ±": 881,
      "ëł¥": 882,
      "ìĹ°": 883,
      "ë¬¼": 884,
      "Ġ10": 885,
      "ang": 886,
      "Ġhad": 887,
      "ëł¤": 888,
      "Ġcl": 889,
      "íĶĦ": 890,
      "erv": 891,
      "ĠìĹŃ": 892,
      "ĠëĲĺ": 893,
      "ork": 894,
      "ome": 895,
      ").": 896,
      "ìľ¼ë©°": 897,
      "ĠìĹ¬": 898,
      "ìľł": 899,
      "ount": 900,
      "Ġhas": 901,
      "íĭ": 902,
      "Ġplay": 903,
      "ê°ľ": 904,
      "ĶĶ": 905,
      "Ġê´Ģ": 906,
      "Ġëħ": 907,
      "hed": 908,
      "íĤ¤": 909,
      "Ġte": 910,
      "ng": 911,
      "ĠëķĮ": 912,
      "ne": 913,
      "ìŀĳ": 914,
      "ational": 915,
      "Ġíĸ": 916,
      "ĠìĤ": 917,
      "ì°¨": 918,
      "ok": 919,
      "ice": 920,
      "Ġ9": 921,
      "ìĺģ": 922,
      "ìĹħ": 923,
      "ĠíĽĦ": 924,
      "íİ": 925,
      "own": 926,
      "ìķ¼": 927,
      "íķł": 928,
      "Ġwhe": 929,
      "ican": 930,
      "±´": 931,
      "ĠíĶĦ": 932,
      "fter": 933,
      "ëįĺ": 934,
      "ater": 935,
      "Ġcont": 936,
      "ê¹": 937,
      "ë°©": 938,
      "Ġfirst": 939,
      "ìļ´": 940,
      "ib": 941,
      "ĠAl": 942,
      "ĠTh": 943,
      "Ġro": 944,
      "tern": 945,
      "ence": 946,
      "ec": 947,
      "ach": 948,
      "ìĪ": 949,
      "ult": 950,
      "Ġint": 951,
      "´Ī": 952,
      "ëĲĺìĹĪëĭ¤": 953,
      "ĠêµĲ": 954,
      "Ġits": 955,
      "ree": 956,
      "Ġíķ´": 957,
      "Ġad": 958,
      "íķĻêµĲ": 959,
      "wo": 960,
      "ìķĪ": 961,
      "ph": 962,
      "Ġë°©": 963,
      "íĨµ": 964,
      "Ġ197": 965,
      "ê±°": 966,
      "In": 967,
      "µľ": 968,
      "íĨł": 969,
      "ìŀĦ": 970,
      "Ġê¹": 971,
      "Ġtheir": 972,
      "ite": 973,
      "ë£¨": 974,
      "ëŀĺ": 975,
      "ke": 976,
      "ions": 977,
      "ool": 978,
      "ime": 979,
      "ĠIt": 980,
      "Ġpart": 981,
      "ens": 982,
      "Ġì¶ľ": 983,
      "¶Į": 984,
      "pt": 985,
      "ì¤ĳ": 986,
      "ê°ģ": 987,
      "ates": 988,
      "Ġap": 989,
      "Ġ'": 990,
      "ìļĶ": 991,
      "Ġres": 992,
      "íŀĪ": 993,
      "Ġab": 994,
      "ru": 995,
      "ound": 996,
      "Ġìŀ¥": 997,
      "Ġbut": 998,
      "ited": 999,
      "amp": 1000,
      "Ġë¬¸": 1001,
      "Ġac": 1002,
      "ìĨį": 1003,
      "ìĸĳ": 1004,
      "out": 1005,
      "ĠAr": 1006,
      "ë°ĺ": 1007,
      "18": 1008,
      "Ķ¼": 1009,
      "ì¢ħ": 1010,
      "ë¶Ħ": 1011,
      "orn": 1012,
      "Ġ12": 1013,
      "aw": 1014,
      "Ġj": 1015,
      "ĠëĤ¨": 1016,
      "ally": 1017,
      "ë¡Ŀ": 1018,
      "Ġwho": 1019,
      "ark": 1020,
      "merican": 1021,
      "over": 1022,
      "clud": 1023,
      "low": 1024,
      "Ġone": 1025,
      "ĠìķĬ": 1026,
      "ors": 1027,
      "Ġë¬´": 1028,
      "ëª¨": 1029,
      "ace": 1030,
      "act": 1031,
      "ath": 1032,
      "ugh": 1033,
      "Ġë§Į": 1034,
      "Â·": 1035,
      "ould": 1036,
      "Ġhave": 1037,
      "ë¶ĢíĦ°": 1038,
      "Ġman": 1039,
      "ubl": 1040,
      "ë¦½": 1041,
      "ile": 1042,
      "ress": 1043,
      "íħ": 1044,
      "ëħ¸": 1045,
      "Ġë°Ķ": 1046,
      "Ġyear": 1047,
      "ĠëĤ´": 1048,
      "ĠìŀĪëĬĶ": 1049,
      "Ġê·": 1050,
      "ê¹Į": 1051,
      "ë²ķ": 1052,
      "ild": 1053,
      "ë²Ħ": 1054,
      "for": 1055,
      "Ġper": 1056,
      "Ī¬": 1057,
      "Ġrec": 1058,
      "Ġ196": 1059,
      "ì§Ģë§Į": 1060,
      "chool": 1061,
      "ents": 1062,
      "ìĹĲê²Į": 1063,
      "ĠíĬ": 1064,
      "Ġê¹Ģ": 1065,
      "ect": 1066,
      "íı¬": 1067,
      "ivers": 1068,
      "Ġê¸": 1069,
      "ĺĲ": 1070,
      "ĠíĨµ": 1071,
      "eg": 1072,
      "Ġìµľ": 1073,
      "ëĶĶ": 1074,
      "iss": 1075,
      "íĮĮ": 1076,
      "ences": 1077,
      "ilm": 1078,
      "íĸĪ": 1079,
      "Ġthis": 1080,
      "Ġbec": 1081,
      "Ġìļ°": 1082,
      "ĠNew": 1083,
      "uring": 1084,
      "ade": 1085,
      "Ġinclud": 1086,
      "ì½Ķ": 1087,
      "¸Į": 1088,
      "wn": 1089,
      "eb": 1090,
      "Ġag": 1091,
      "ëŀĮ": 1092,
      "ĊĊ": 1093,
      "ĠëĶ": 1094,
      "Ġê±°": 1095,
      "ĠìĽĲ": 1096,
      "ë¥¸": 1097,
      "Ġher": 1098,
      "ob": 1099,
      "old": 1100,
      "oy": 1101,
      "Ġ11": 1102,
      "ern": 1103,
      "Ġen": 1104,
      "vel": 1105,
      "Ġtwo": 1106,
      "ee": 1107,
      "´ĳ": 1108,
      "Ġother": 1109,
      "Ġëħ¸": 1110,
      "les": 1111,
      "gh": 1112,
      "íĺĦ": 1113,
      "ons": 1114,
      "Ġê²°": 1115,
      "íĺķ": 1116,
      "ì¸": 1117,
      "Ġìŀĳ": 1118,
      "Ġsc": 1119,
      "ìķĺ": 1120,
      "íĹ": 1121,
      "uch": 1122,
      "Ġë©": 1123,
      "Ġê°ķ": 1124,
      "ased": 1125,
      "Ġbeen": 1126,
      "one": 1127,
      "ĠëĺĲ": 1128,
      "íĳľ": 1129,
      "ind": 1130,
      "able": 1131,
      "ĠMar": 1132,
      "ìĿ´ëĿ¼": 1133,
      "ĠìĥĿ": 1134,
      "ĠíĺĦ": 1135,
      "ember": 1136,
      "Ġë¶Ī": 1137,
      "Ġì§Ħ": 1138,
      "ë°Ķ": 1139,
      "Ġdis": 1140,
      "oin": 1141,
      "ail": 1142,
      "ìłģìĿ¸": 1143,
      "ss": 1144,
      "Ġíı¬": 1145,
      "ëĤ´": 1146,
      "ì¦Ī": 1147,
      "íĭ°": 1148,
      "ëŀĢ": 1149,
      "ely": 1150,
      "io": 1151,
      "Re": 1152,
      "Ġim": 1153,
      "Ġìĸ´": 1154,
      "199": 1155,
      "ople": 1156,
      "ìłģìľ¼ë¡ľ": 1157,
      "ward": 1158,
      "ê¶Į": 1159,
      "ings": 1160,
      "ê¹Įì§Ģ": 1161,
      "Ġ~": 1162,
      "ê²©": 1163,
      "ĠCom": 1164,
      "¤Ģ": 1165,
      "Ġdes": 1166,
      "ied": 1167,
      "Ġafter": 1168,
      "ì²ľ": 1169,
      "Ġë°ĺ": 1170,
      "we": 1171,
      "als": 1172,
      "Ġëĭ¹": 1173,
      "ì¼": 1174,
      "ft": 1175,
      "urn": 1176,
      "Ġcomm": 1177,
      "Ġíİ": 1178,
      "ìĬ¹": 1179,
      "red": 1180,
      "ics": 1181,
      "íķ©": 1182,
      "Ġê°Ļ": 1183,
      "Ġë°°": 1184,
      "Ġëªħ": 1185,
      "Ġê³Ħ": 1186,
      "Ġë¡": 1187,
      "ance": 1188,
      "ë°ľ": 1189,
      "ĠíĮĮ": 1190,
      "ìĦ¤": 1191,
      "Ġ15": 1192,
      "ood": 1193,
      "ëŀĳ": 1194,
      "ĠëĮĢíķľë¯¼": 1195,
      "ìĭ¤": 1196,
      "hip": 1197,
      "Ġsp": 1198,
      "..": 1199,
      "oot": 1200,
      "ferences": 1201,
      "orld": 1202,
      "ìłĲ": 1203,
      "ĠìĹĨ": 1204,
      "ëł¹": 1205,
      "ìĻ¸": 1206,
      "ìĨ¡": 1207,
      "Ġ194": 1208,
      "ah": 1209,
      "ted": 1210,
      "way": 1211,
      "Ġ17": 1212,
      "ì¿": 1213,
      "ì¡±": 1214,
      "eople": 1215,
      "ë¦°": 1216,
      "ase": 1217,
      "ury": 1218,
      "Ġë¶Ħ": 1219,
      "201": 1220,
      "Ġ16": 1221,
      "íĴ": 1222,
      "Ġover": 1223,
      "Ġup": 1224,
      "Ġnew": 1225,
      "ral": 1226,
      "ĠìĤ¬ìļ©": 1227,
      "Ġìĭ¤": 1228,
      "Ġë¦": 1229,
      "ĠAmerican": 1230,
      "ough": 1231,
      "ans": 1232,
      "ëĤ¨": 1233,
      "Ġout": 1234,
      "ĠâĢ": 1235,
      "Ġoff": 1236,
      "ìħ": 1237,
      "ĠìķĮ": 1238,
      "ĠëĦ": 1239,
      "ëĵ±": 1240,
      "ont": 1241,
      "Ġcan": 1242,
      "Ġinto": 1243,
      "ì§ģ": 1244,
      "Ġthey": 1245,
      "ished": 1246,
      "ĠëĶ°": 1247,
      "ëĲĺìĸ´": 1248,
      "oh": 1249,
      "outh": 1250,
      "Ġ195": 1251,
      "Ġall": 1252,
      "íĥľ": 1253,
      "ram": 1254,
      "ision": 1255,
      "Ġëĭ¨": 1256,
      "Ġev": 1257,
      "ĠìĦ¤": 1258,
      "ĠDe": 1259,
      "ìļ¸": 1260,
      "gan": 1261,
      "ëĵ¤ìĿ´": 1262,
      "Ġtra": 1263,
      "ĠìĿ¼ë³¸": 1264,
      "Ġë§Ĳ": 1265,
      "References": 1266,
      "du": 1267,
      "Ġìŀ¬": 1268,
      "Ġra": 1269,
      "ĠLe": 1270,
      "Ġact": 1271,
      "olog": 1272,
      "lect": 1273,
      "ëĳĲ": 1274,
      "ren": 1275,
      "rans": 1276,
      "ê±´": 1277,
      "Ġgro": 1278,
      "ton": 1279,
      "ì¶ľ": 1280,
      "ìĹĲìĦľëĬĶ": 1281,
      "pec": 1282,
      "Ġfilm": 1283,
      "Ġund": 1284,
      "ose": 1285,
      "Ġë°Ľ": 1286,
      "reat": 1287,
      "ball": 1288,
      "ames": 1289,
      "´Ŀ": 1290,
      "ĠìķĪ": 1291,
      "ĠíĹ": 1292,
      "ĠìĤ¬ëŀĮ": 1293,
      "||": 1294,
      "ĠSh": 1295,
      "Ġë¦¬": 1296,
      "ëıħ": 1297,
      "ĠìļĶ": 1298,
      "Ġserv": 1299,
      "rough": 1300,
      "Ġpre": 1301,
      "íĮĲ": 1302,
      "duc": 1303,
      "Ġatt": 1304,
      "cess": 1305,
      "ëĵ¤ìĿĢ": 1306,
      "ë¦Ħ": 1307,
      "che": 1308,
      "inal": 1309,
      "Ġíķľëĭ¤": 1310,
      "ĠCol": 1311,
      "Ġíķ¨": 1312,
      "íķ¨": 1313,
      "Ġcol": 1314,
      "ict": 1315,
      "ê°ķ": 1316,
      "ë©´ìĦľ": 1317,
      "orth": 1318,
      "ë¥ĺ": 1319,
      "ë¡ł": 1320,
      "ë©Ķ": 1321,
      "ĠìĺĪ": 1322,
      "Ġì°¨": 1323,
      "ĠìĹĲ": 1324,
      "ĠëĳĲ": 1325,
      "iversity": 1326,
      "Ġtime": 1327,
      "íķĺê¸°": 1328,
      "Ġlin": 1329,
      "rib": 1330,
      "ins": 1331,
      "ious": 1332,
      "Ġloc": 1333,
      "ex": 1334,
      "ìĪł": 1335,
      "íķĺê²Į": 1336,
      "ever": 1337,
      "Ġêµ°": 1338,
      "ake": 1339,
      "ìĦĿ": 1340,
      "ë²Ī": 1341,
      "der": 1342,
      "ë¦¬ìķĦ": 1343,
      "BS": 1344,
      "íĿ": 1345,
      "ener": 1346,
      "ix": 1347,
      "att": 1348,
      "000": 1349,
      "ick": 1350,
      "ì»": 1351,
      "form": 1352,
      "ĠíĬ¹": 1353,
      "Ġë¡ľ": 1354,
      "ists": 1355,
      "Ġkn": 1356,
      "Ġbet": 1357,
      "Ġpr": 1358,
      "ê¸Ī": 1359,
      "Ġcent": 1360,
      "Ġëıħ": 1361,
      "ĠìĿ´íĽĦ": 1362,
      "Ġhim": 1363,
      "íĪ¬": 1364,
      "ĊĠ": 1365,
      "ale": 1366,
      "Ġreg": 1367,
      "Ġunder": 1368,
      "ìŀħ": 1369,
      "Ġwork": 1370,
      "ìĬ¤íĬ¸": 1371,
      "ities": 1372,
      "ì²Ń": 1373,
      "ĠUnited": 1374,
      "ince": 1375,
      "Ġsec": 1376,
      "Ġform": 1377,
      "Ġwhen": 1378,
      "ĠëĨ": 1379,
      "ìĭ¬": 1380,
      "ik": 1381,
      "az": 1382,
      "Ġpol": 1383,
      "ì£¼ìĿĺ": 1384,
      "ë¸Į": 1385,
      "Ġmore": 1386,
      "ìľ¼ëĤĺ": 1387,
      "ason": 1388,
      "ĠPro": 1389,
      "ars": 1390,
      "Ġì¢ħ": 1391,
      "Ġcons": 1392,
      "rad": 1393,
      "oth": 1394,
      "ì´Ī": 1395,
      "iel": 1396,
      "ll": 1397,
      "ëĦ¤": 1398,
      "Ġì¹´": 1399,
      "ĠZ": 1400,
      "Ġbu": 1401,
      "ve": 1402,
      "ë£Į": 1403,
      "cent": 1404,
      "use": 1405,
      "ular": 1406,
      "Ġë§İ": 1407,
      "Ġwould": 1408,
      "ĠìĿĮ": 1409,
      "Ex": 1410,
      "ween": 1411,
      "Ġco": 1412,
      "21": 1413,
      "ann": 1414,
      "ĠìĦłìĪĺ": 1415,
      "aj": 1416,
      "ĠëĿ¼": 1417,
      "Ġì¦": 1418,
      "Ġmost": 1419,
      "Ġind": 1420,
      "Ġ2006": 1421,
      "eat": 1422,
      "ëŁī": 1423,
      "ck": 1424,
      "ìĻķ": 1425,
      "Ġonly": 1426,
      "ì¤Ģ": 1427,
      "Ġë¹": 1428,
      "ual": 1429,
      "ife": 1430,
      "ĠAn": 1431,
      "Ġshe": 1432,
      "Ġì¶Ķ": 1433,
      "Ġsy": 1434,
      "ĠìĻķ": 1435,
      "lish": 1436,
      "Ġìļ´": 1437,
      "Ġrel": 1438,
      "ìĺĢëĭ¤": 1439,
      "Ġì´Ī": 1440,
      "Ġpeople": 1441,
      "ìķ½": 1442,
      "Ġused": 1443,
      "Ġest": 1444,
      "ternal": 1445,
      "Ġë°ı": 1446,
      "Ġ14": 1447,
      "ĠSc": 1448,
      "ollow": 1449,
      "Ġpubl": 1450,
      "Ġass": 1451,
      "oun": 1452,
      "198": 1453,
      "íĸ¥": 1454,
      "ê¸ī": 1455,
      "Ġop": 1456,
      "Ġme": 1457,
      "Ġìĸĳ": 1458,
      "ĠInd": 1459,
      "ì§Ī": 1460,
      "ily": 1461,
      "pr": 1462,
      "Ġëį°": 1463,
      "Ġsup": 1464,
      "íĴĪ": 1465,
      "Ġì¡": 1466,
      "ock": 1467,
      "íĶ¼": 1468,
      "oci": 1469,
      "ident": 1470,
      "Ġíĸī": 1471,
      "ĠìĪ": 1472,
      "ìķħ": 1473,
      "ìķĺëĭ¤": 1474,
      "ĠíĶĦë¡ľ": 1475,
      "Ġ13": 1476,
      "Ġsub": 1477,
      "ier": 1478,
      "inn": 1479,
      "Ġë³Ģ": 1480,
      "emb": 1481,
      "Ġduring": 1482,
      "Ġyears": 1483,
      "ëħĦìĹĲ": 1484,
      "ë³ĳ": 1485,
      "ĠEng": 1486,
      "ëĬ¥": 1487,
      "Ġ193": 1488,
      "ced": 1489,
      "ĵ°": 1490,
      "usic": 1491,
      "ì¿ł": 1492,
      "ë§Ŀ": 1493,
      "ĠCl": 1494,
      "eries": 1495,
      "Ġì°¸": 1496,
      "Ġê°Ĳ": 1497,
      "Ġbo": 1498,
      "Ġbetween": 1499,
      "Ġret": 1500,
      "íħĮ": 1501,
      "ĠUniversity": 1502,
      "ĠíĥĢ": 1503,
      "ĠíĿ": 1504,
      ".\"": 1505,
      "Ġíģ": 1506,
      "Łģ": 1507,
      "Ġê±´": 1508,
      "íİĺ": 1509,
      "Ġíıī": 1510,
      "pro": 1511,
      "ë¨": 1512,
      "overn": 1513,
      "Ġstud": 1514,
      "bum": 1515,
      "íķŃ": 1516,
      "ĠìĻ¸": 1517,
      "ë³Ħ": 1518,
      "ëĤľ": 1519,
      "Ġìŀħ": 1520,
      "Ġinter": 1521,
      "ron": 1522,
      "Ġear": 1523,
      "Ġwhere": 1524,
      "10": 1525,
      "íİ¸": 1526,
      "Ġagain": 1527,
      "ìŁģ": 1528,
      "ĶĮ": 1529,
      "Ã©": 1530,
      "any": 1531,
      "Ġíĺķ": 1532,
      "\",": 1533,
      "Ġì±": 1534,
      "Ġlinks": 1535,
      "ëĬĶëį°": 1536,
      "Ġìłģ": 1537,
      "ative": 1538,
      "ism": 1539,
      "ĠThis": 1540,
      "ê³¡": 1541,
      "ific": 1542,
      "Ġthrough": 1543,
      "Ġqu": 1544,
      "ĠëĲĺìĹĪëĭ¤": 1545,
      "Ġteam": 1546,
      "Ġsuch": 1547,
      "ĠëįĶ": 1548,
      "ĠëķĮë¬¸": 1549,
      "Ġrem": 1550,
      "ê´ĳ": 1551,
      "ĠíĻĶ": 1552,
      "erm": 1553,
      "Ġso": 1554,
      "Ġfound": 1555,
      "ohn": 1556,
      "ley": 1557,
      "istory": 1558,
      "Ġë§¤": 1559,
      "ĠëĲľ": 1560,
      "´ī": 1561,
      "Ġabout": 1562,
      "round": 1563,
      "íĻ©": 1564,
      "ash": 1565,
      "Ġnum": 1566,
      "air": 1567,
      "ìĸ¸": 1568,
      "ten": 1569,
      "ĠíļĮ": 1570,
      "Ġì¶ķ": 1571,
      "ë²ł": 1572,
      "raph": 1573,
      "ëł¨": 1574,
      "ating": 1575,
      "Ġì½Ķ": 1576,
      "External": 1577,
      "ĠíĻľ": 1578,
      "\".": 1579,
      "ª½": 1580,
      "resent": 1581,
      "fore": 1582,
      "ì§ĳ": 1583,
      "ë°°": 1584,
      "Ġë°ķ": 1585,
      "Ġthree": 1586,
      "ootball": 1587,
      "ĠìĤ°": 1588,
      "Ġthem": 1589,
      "BC": 1590,
      "hen": 1591,
      "ĠRe": 1592,
      "Ġschool": 1593,
      "ĠíĶ¼": 1594,
      "ëĵ¤ìĿĺ": 1595,
      "erman": 1596,
      "ëĮĢíķľ": 1597,
      "ë§¤": 1598,
      "Ġê³¼": 1599,
      "Ġthere": 1600,
      "ê²°": 1601,
      "Ġ||": 1602,
      "Ġthan": 1603,
      "ë³µ": 1604,
      "Ġtrans": 1605,
      "ìĭľìķĦ": 1606,
      "arg": 1607,
      "cc": 1608,
      "Ġë²ł": 1609,
      "Ġrele": 1610,
      "Ġíĥľ": 1611,
      "17": 1612,
      "ìĺĪ": 1613,
      "ĠOr": 1614,
      "ãĥ": 1615,
      "ëĵł": 1616,
      "ĠStates": 1617,
      "Ġam": 1618,
      "ober": 1619,
      "ê»": 1620,
      "Ġed": 1621,
      "ĠìľĦíķ´": 1622,
      "Ġlater": 1623,
      "Ġë¬¼": 1624,
      "ê¸°ëıĦ": 1625,
      "Ġdist": 1626,
      "Ġthen": 1627,
      "irect": 1628,
      "Ġê°ĻìĿĢ": 1629,
      "Ġëł": 1630,
      "Ġend": 1631,
      "enn": 1632,
      "Ġfollow": 1633,
      "ë¦¼": 1634,
      "ĠìŀĦ": 1635,
      "ower": 1636,
      "ëĲĺìĹĪ": 1637,
      "Ġê²Į": 1638,
      "ĠĊĠĊ": 1639,
      "į¼": 1640,
      "Ġsome": 1641,
      "ëĵ¤ìĿĦ": 1642,
      "iver": 1643,
      "velop": 1644,
      "ield": 1645,
      "Ġëª©": 1646,
      "ject": 1647,
      "Ġíģ¬": 1648,
      "Ġíĺ¸": 1649,
      "ĠíķľêµŃ": 1650,
      "âĢĻ": 1651,
      "Ġmov": 1652,
      "Ġê²½ìļ°": 1653,
      "Ġknown": 1654,
      "iam": 1655,
      "Ġíĳľ": 1656,
      "ert": 1657,
      "Ġë¯¼": 1658,
      "Ġë¶ģ": 1659,
      "Ġëĵ¤": 1660,
      "Ġê·¸ë¦¬": 1661,
      "Ġspec": 1662,
      "oss": 1663,
      "ĠĠĠĠ": 1664,
      "197": 1665,
      "ĠIs": 1666,
      "Ġìĭľìŀĳ": 1667,
      "ional": 1668,
      "Ġdef": 1669,
      "Ġalbum": 1670,
      "ìĶ": 1671,
      "ëĲľëĭ¤": 1672,
      "erson": 1673,
      "ments": 1674,
      "stem": 1675,
      "ĠìĬ¹": 1676,
      "Ġset": 1677,
      "ĠBrit": 1678,
      "ìª½": 1679,
      "Ġwrit": 1680,
      "ĠBl": 1681,
      "ures": 1682,
      "Ġprov": 1683,
      "ìłĢ": 1684,
      "Ġ2005": 1685,
      "Ġ2007": 1686,
      "ague": 1687,
      "Ġsing": 1688,
      "ys": 1689,
      "ëĿ¼ëĬĶ": 1690,
      "Ġ2008": 1691,
      "ê»ĺ": 1692,
      "ina": 1693,
      "Ġë²Ī": 1694,
      "ĠAs": 1695,
      "Ġê·¸ëĬĶ": 1696,
      "ĠAust": 1697,
      "ĠWorld": 1698,
      "Ġcall": 1699,
      "Ġëĭ¤ë¥¸": 1700,
      "Ġì²ľ": 1701,
      "ĠQ": 1702,
      "Ġpop": 1703,
      "Ġent": 1704,
      "Ġinv": 1705,
      "els": 1706,
      "its": 1707,
      "ĠëĶ°ëĿ¼": 1708,
      "Ġë¯¸êµŃ": 1709,
      "Ġë³¸": 1710,
      "ĠCon": 1711,
      "ement": 1712,
      "ike": 1713,
      "ise": 1714,
      "Ġph": 1715,
      "Ġmade": 1716,
      "Ġrecord": 1717,
      "ì¡Į": 1718,
      "ëª©": 1719,
      "eth": 1720,
      "16": 1721,
      "ouse": 1722,
      "pos": 1723,
      "com": 1724,
      "Ġsecond": 1725,
      "ĠWar": 1726,
      "lev": 1727,
      "uro": 1728,
      "ì²ĺ": 1729,
      "íĻĺ": 1730,
      "15": 1731,
      "ë¶ģ": 1732,
      "Ġfl": 1733,
      "ĠíķĻ": 1734,
      "ank": 1735,
      "ĠJohn": 1736,
      "Ġì´Ŀ": 1737,
      "Ġart": 1738,
      "ì¸ł": 1739,
      "ìł¸": 1740,
      "ays": 1741,
      "Ġbecame": 1742,
      "ĠëłĪ": 1743,
      "Ġì§ĢìĹŃ": 1744,
      "Ġestab": 1745,
      "uss": 1746,
      "Ġdo": 1747,
      "ìħĺ": 1748,
      "ĠCan": 1749,
      "Ġbeing": 1750,
      "ìľ¡": 1751,
      "ines": 1752,
      "ĠìĹ´": 1753,
      "ì±": 1754,
      "iew": 1755,
      "Ġëĭ¬": 1756,
      "Ġìĺ¬": 1757,
      "ëĿ¼ê³ł": 1758,
      "cy": 1759,
      "22": 1760,
      "ĠSp": 1761,
      "ìłĪ": 1762,
      "Ġbl": 1763,
      "Ġ30": 1764,
      "ax": 1765,
      "mp": 1766,
      "ìĿ´ëĤĺ": 1767,
      "ived": 1768,
      "ëŀľ": 1769,
      "ì²ł": 1770,
      "ëĭ¬": 1771,
      "ey": 1772,
      "ĠSchool": 1773,
      "Ġê°ģ": 1774,
      "()": 1775,
      "ĠëĮĢíķľë¯¼êµŃìĿĺ": 1776,
      "Ġê·¸ëŁ¬": 1777,
      "Ġmod": 1778,
      "ium": 1779,
      "ĠComm": 1780,
      "íķĺëĭ¤": 1781,
      "ìĿ´ë©°": 1782,
      "Ġwell": 1783,
      "inist": 1784,
      "ãģ": 1785,
      "stit": 1786,
      "ĠFran": 1787,
      "ìĦ¸ê¸°": 1788,
      "Ġì§ģ": 1789,
      "Ġìķ½": 1790,
      "Ġíķ¨ê»ĺ": 1791,
      "ograph": 1792,
      "rid": 1793,
      "ë¹": 1794,
      "other": 1795,
      "Ġappe": 1796,
      "Ġ&": 1797,
      "very": 1798,
      "rist": 1799,
      "ĠíķŃ": 1800,
      "arl": 1801,
      "ĠìŀĲìĭł": 1802,
      "urch": 1803,
      "íķĺì§Ģ": 1804,
      "íķĺë©°": 1805,
      "Ġíħ": 1806,
      "ì§¸": 1807,
      "Ġê°Ħ": 1808,
      "Ġëĵľ": 1809,
      "Ġmany": 1810,
      "owever": 1811,
      "ìĺ¨": 1812,
      "ĠPh": 1813,
      "ìĽĮ": 1814,
      "ĠFor": 1815,
      "Ġë©Ķ": 1816,
      "ute": 1817,
      "Ġì²ĺ": 1818,
      "Ġseason": 1819,
      "Ġ2004": 1820,
      "ĠAt": 1821,
      "ëłĪìĿ´": 1822,
      "Ġì§ĳ": 1823,
      "ution": 1824,
      "ĠNational": 1825,
      "Ġincluding": 1826,
      "ĠìłĢ": 1827,
      "12": 1828,
      "Ġgroup": 1829,
      "let": 1830,
      "Ġì»": 1831,
      "Ġfam": 1832,
      "íıī": 1833,
      "Ġseries": 1834,
      "Ġcount": 1835,
      "Ġ25": 1836,
      "Ġìķ¼": 1837,
      "Ġorig": 1838,
      "Ġlead": 1839,
      "Ġmay": 1840,
      "Ġëĭ¤ìĿĮ": 1841,
      "íļ": 1842,
      "Ġ2009": 1843,
      "Ġfour": 1844,
      "Ġchar": 1845,
      "ĠAd": 1846,
      "son": 1847,
      "ctions": 1848,
      "Ġinc": 1849,
      "ered": 1850,
      "ĠìĤ¬ìĿ´": 1851,
      "Ġhigh": 1852,
      "ĠìĥĪ": 1853,
      "Ġì¡°ìĦł": 1854,
      "ìĹĲëıĦ": 1855,
      "ĠëķĮë¬¸ìĹĲ": 1856,
      "ĠìĦ¸ê³Ħ": 1857,
      "ìĬ¤ìĿĺ": 1858,
      "ì¼Ģ": 1859,
      "elf": 1860,
      "ĠCount": 1861,
      "ues": 1862,
      "Ġadd": 1863,
      "Ġ2000": 1864,
      "ĠêµŃê°Ģ": 1865,
      "·¨": 1866,
      "Ġ2010": 1867,
      "ĠGerman": 1868,
      "til": 1869,
      "ternational": 1870,
      "Ġoper": 1871,
      "ai": 1872,
      "Ġwhile": 1873,
      "Ġì²ł": 1874,
      "une": 1875,
      "ract": 1876,
      "ull": 1877,
      "Ġno": 1878,
      "Ġì²´": 1879,
      "ians": 1880,
      "rict": 1881,
      "iving": 1882,
      "ĠëĺĲíķľ": 1883,
      "ëĦĪ": 1884,
      "íģ": 1885,
      "ural": 1886,
      "Ġmed": 1887,
      "Ġê´ĳ": 1888,
      "Ġdevelop": 1889,
      "ëħĢ": 1890,
      "ired": 1891,
      "ty": 1892,
      "196": 1893,
      "Ġsur": 1894,
      "Ġsign": 1895,
      "my": 1896,
      "ê·¼": 1897,
      "ĻìĿ´": 1898,
      "Ġì¶ķêµ¬": 1899,
      "ĠWest": 1900,
      "Ġë§ģ": 1901,
      "ìĹ´": 1902,
      "Ġmain": 1903,
      "ĠëĴ": 1904,
      "by": 1905,
      "ìĤ´": 1906,
      "ather": 1907,
      "Ġown": 1908,
      "Ġíİ¸": 1909,
      "ept": 1910,
      "ĠìĿ´ë¦Ħ": 1911,
      "Ġëĭ¹ìĭľ": 1912,
      "ĠOn": 1913,
      "Ġëģ": 1914,
      "Ġì¡´": 1915,
      "ven": 1916,
      "ĠShe": 1917,
      "ĠYork": 1918,
      "ĠPl": 1919,
      "Ġbefore": 1920,
      "ĠìĨį": 1921,
      "Ġ/": 1922,
      "Ġboth": 1923,
      "Ġê°Ģìŀ¥": 1924,
      "Ġsong": 1925,
      "ë²Ķ": 1926,
      "Ġname": 1927,
      "Ġshow": 1928,
      "cept": 1929,
      "Ġbro": 1930,
      "Ġ0": 1931,
      "gram": 1932,
      "ĠíĻ©": 1933,
      "uth": 1934,
      "ple": 1935,
      "ê¸Ģ": 1936,
      "Ġê¸°ë¡Ŀ": 1937,
      "ĠII": 1938,
      "Ġì²Ń": 1939,
      "íĥĦ": 1940,
      "Ġdec": 1941,
      "ĠìłĲ": 1942,
      "Ġdif": 1943,
      "amed": 1944,
      "Ġë²ķ": 1945,
      "ìĥī": 1946,
      "Ġnumber": 1947,
      "Ġê·¸ìĿĺ": 1948,
      "ĠëĮĢíķľë¯¼êµŃ": 1949,
      "14": 1950,
      "ĠíĻķ": 1951,
      "Ġ)": 1952,
      "¸Ķ": 1953,
      "ott": 1954,
      "ëįĶ": 1955,
      "Ġplayers": 1956,
      "ĠíĨł": 1957,
      "ëĮĢíķľë¯¼": 1958,
      "Ġdirect": 1959,
      "íĥĪ": 1960,
      "ology": 1961,
      "Ġagainst": 1962,
      "Ġuntil": 1963,
      "ĠëĬ": 1964,
      "Ġmon": 1965,
      "13": 1966,
      "ëŁ½": 1967,
      "ĠSouth": 1968,
      "ĠBritish": 1969,
      "ird": 1970,
      "overnment": 1971,
      "Ġ.": 1972,
      "ìķł": 1973,
      "ĠJan": 1974,
      "Ġê²ĥìĿĦ": 1975,
      "ized": 1976,
      "ved": 1977,
      "ient": 1978,
      "Ġë§ģíģ¬": 1979,
      "Ġsystem": 1980,
      "ĠìĺģíĻĶ": 1981,
      "Ġgener": 1982,
      "ĪĦ": 1983,
      "au": 1984,
      "Ġ2003": 1985,
      "arri": 1986,
      "ĠMay": 1987,
      "ê°ģì£¼": 1988,
      "Ġë³µ": 1989,
      "ìĶ¨": 1990,
      "ually": 1991,
      "Ġgu": 1992,
      "Ġback": 1993,
      "ĠëĲľëĭ¤": 1994,
      "led": 1995,
      "Ġem": 1996,
      "ĠAustral": 1997,
      "ives": 1998,
      "Ġì¢": 1999,
      "stru": 2000,
      "ajor": 2001,
      "pect": 2002,
      "Ġìĸ¸": 2003,
      "Ġcap": 2004,
      "imes": 2005,
      "ĠìĤ¼": 2006,
      "Ġìº": 2007,
      "23": 2008,
      "ê¸°ë¥¼": 2009,
      "ica": 2010,
      "ants": 2011,
      "Ġsever": 2012,
      "ê·¹": 2013,
      "Ķëĭ¤": 2014,
      "Ġvar": 2015,
      "ìĻ¸ë¶Ģ": 2016,
      "ì³": 2017,
      "ĠNo": 2018,
      "hes": 2019,
      "Ġê²ĥìĿ´": 2020,
      "lege": 2021,
      "ë¨¸": 2022,
      "ì¶ķ": 2023,
      "Ġext": 2024,
      "aid": 2025,
      "Ġê¸Ī": 2026,
      "ause": 2027,
      "Ġoffic": 2028,
      "eng": 2029,
      "ĠëĴ¤": 2030,
      "ets": 2031,
      "íĹĺ": 2032,
      "Ġmusic": 2033,
      "ĠíĶĦëŀĳ": 2034,
      "Ġ2011": 2035,
      "Ġfin": 2036,
      "rand": 2037,
      "ross": 2038,
      "Ġê·¸ëŁ¬ëĤĺ": 2039,
      "ae": 2040,
      "ëĲĺëĬĶ": 2041,
      "ĠíķĺëĤĺ": 2042,
      "Ġëª»": 2043,
      "ĠìĦľìļ¸": 2044,
      "ê°Ĳ": 2045,
      "Ġíķ©": 2046,
      "Ġfootball": 2047,
      "ths": 2048,
      "Ġexp": 2049,
      "ĠíĸĪëĭ¤": 2050,
      "Ġcre": 2051,
      "Ġsm": 2052,
      "ĠCent": 2053,
      "ĠWh": 2054,
      "ê²¬": 2055,
      "duced": 2056,
      "ĠìŀĪìĹĪëĭ¤": 2057,
      "ĠíĪ¬": 2058,
      "£½": 2059,
      "ris": 2060,
      "Ġarea": 2061,
      "Ġ24": 2062,
      "arm": 2063,
      "ery": 2064,
      "ãĤ": 2065,
      "Ġë³´ê¸°": 2066,
      "ained": 2067,
      "ĠMan": 2068,
      "ĠTe": 2069,
      "ared": 2070,
      "ages": 2071,
      "Ġne": 2072,
      "vent": 2073,
      "Ġcalled": 2074,
      "iet": 2075,
      "Ġacc": 2076,
      "ove": 2077,
      "Ġ2001": 2078,
      "Ġgo": 2079,
      "ì°½": 2080,
      "Ġformer": 2081,
      "ible": 2082,
      "íį¼": 2083,
      "Ġì°½": 2084,
      "oman": 2085,
      "Ġrep": 2086,
      "ìĿ´ëĿ¼ê³ł": 2087,
      "embers": 2088,
      "Ġob": 2089,
      "ê°ĻìĿ´": 2090,
      "Ġ2002": 2091,
      "ì½": 2092,
      "ene": 2093,
      "Ġuse": 2094,
      "ior": 2095,
      "yl": 2096,
      "Ġpolit": 2097,
      "Ġdesign": 2098,
      "ĠìĿĺíķ´": 2099,
      "Ġbuild": 2100,
      "ëĥ": 2101,
      "Ġdeath": 2102,
      "Ġprodu": 2103,
      "ê¸°ìĹĲ": 2104,
      "Ġbas": 2105,
      "ĠSe": 2106,
      "ä¸": 2107,
      "ret": 2108,
      "Ġì¦Ŀ": 2109,
      "Ġfeat": 2110,
      "ility": 2111,
      "ugust": 2112,
      "Ġë¨": 2113,
      "ëĵ±íķĻêµĲ": 2114,
      "ĠíķĦ": 2115,
      "ĠCanad": 2116,
      "ampions": 2117,
      "inc": 2118,
      "uary": 2119,
      "ĠReg": 2120,
      "Ġgame": 2121,
      "Ġê°Ģì§Ģ": 2122,
      "å¤": 2123,
      "ĠëĶĶ": 2124,
      "ook": 2125,
      "ange": 2126,
      "Ġopen": 2127,
      "ful": 2128,
      "Ġdr": 2129,
      "ĠNorth": 2130,
      "ĠBro": 2131,
      "the": 2132,
      "Ġ2012": 2133,
      "icip": 2134,
      "arch": 2135,
      "ĠGe": 2136,
      "Ġë°±": 2137,
      "ital": 2138,
      "Ġstate": 2139,
      "ony": 2140,
      "ĠX": 2141,
      "ĠEuro": 2142,
      "Ġlong": 2143,
      "Ġê²ĥìľ¼ë¡ľ": 2144,
      "ting": 2145,
      "ĠíĻľëıĻ": 2146,
      "fl": 2147,
      "ĠJu": 2148,
      "Ġrun": 2149,
      "...": 2150,
      "omen": 2151,
      "Ġë£": 2152,
      "ission": 2153,
      "ë¦¬ëĬĶ": 2154,
      "Ġ,": 2155,
      "levision": 2156,
      "ëŁ°": 2157,
      "50": 2158,
      "ially": 2159,
      "Ġcontin": 2160,
      "ĠAm": 2161,
      "ĠëĺĲëĬĶ": 2162,
      "Ġair": 2163,
      "ëŀľëĵľ": 2164,
      "St": 2165,
      "194": 2166,
      "ë°±": 2167,
      "isc": 2168,
      "Ġstation": 2169,
      "11": 2170,
      "ĠíĮĲ": 2171,
      "ĠAss": 2172,
      "ĠGu": 2173,
      "por": 2174,
      "Ġthese": 2175,
      "Ġseveral": 2176,
      "Ġìĵ°": 2177,
      "ulation": 2178,
      "Ġ23": 2179,
      "ĠKing": 2180,
      "ĠìĿ¼ë¶Ģ": 2181,
      "Ġearly": 2182,
      "ī´": 2183,
      "ĠPr": 2184,
      "Ġsame": 2185,
      "ĠíĺĦìŀ¬": 2186,
      "ĠCounty": 2187,
      "Ġreleased": 2188,
      "angu": 2189,
      "Ġìķł": 2190,
      "ports": 2191,
      "Ġìłķì¹ĺ": 2192,
      "amb": 2193,
      "Ġë°©ìĨ¡": 2194,
      "Ġcare": 2195,
      "Ġë¸Į": 2196,
      "å®": 2197,
      "ĠCity": 2198,
      "Ch": 2199,
      "rent": 2200,
      "Ġê·¼": 2201,
      "Ġìĭ¬": 2202,
      "ìĪľ": 2203,
      "ëĤł": 2204,
      "aking": 2205,
      "Ġwill": 2206,
      "born": 2207,
      "con": 2208,
      "Ġëĵ¤ìĸ´": 2209,
      "Ġë§İìĿĢ": 2210,
      "ĠNov": 2211,
      "ĠìĤ´": 2212,
      "Ġë²Ħ": 2213,
      "ëĬĶëĭ¤": 2214,
      "yn": 2215,
      "ĠBe": 2216,
      "Ġany": 2217,
      "Ġprogram": 2218,
      "ĠìŀĪìľ¼ë©°": 2219,
      "íļĮìĿĺ": 2220,
      "Ġstart": 2221,
      "wards": 2222,
      "Ġorgan": 2223,
      "ĠAll": 2224,
      "ëĮĢíķĻêµĲ": 2225,
      "eptember": 2226,
      "sh": 2227,
      "ĠMarch": 2228,
      "Ġsuc": 2229,
      "ĠEd": 2230,
      "ically": 2231,
      "ĠĊĊ": 2232,
      "Ġë°°ìļ°": 2233,
      "Ġplayed": 2234,
      "íĿ¬": 2235,
      "ains": 2236,
      "ĠUS": 2237,
      "arn": 2238,
      "Ġann": 2239,
      "istor": 2240,
      "Ġcharact": 2241,
      "ĠëıĮ": 2242,
      "ctober": 2243,
      "ìķĻ": 2244,
      "ëĿ": 2245,
      "ìĿ´ëĿ¼ëĬĶ": 2246,
      "ĠíŀĪ": 2247,
      "ĠCal": 2248,
      "af": 2249,
      "íĬ¹": 2250,
      "Ġì¹ľ": 2251,
      "Ġ21": 2252,
      "chn": 2253,
      "ì¡Įëĭ¤": 2254,
      "Ġlife": 2255,
      "Ġpublic": 2256,
      "Ġdisc": 2257,
      "Ġê²ĥìĿ´ëĭ¤": 2258,
      "oint": 2259,
      "Ġ190": 2260,
      "ĽĪ": 2261,
      "ì¶Ķ": 2262,
      "ox": 2263,
      "lished": 2264,
      "rop": 2265,
      "Ġbel": 2266,
      "ices": 2267,
      "ì°°": 2268,
      "ilit": 2269,
      "Ġreturn": 2270,
      "Ġcur": 2271,
      "See": 2272,
      "ĠAugust": 2273,
      "pril": 2274,
      "ĠChrist": 2275,
      "ì¹Ń": 2276,
      "ĠLeague": 2277,
      "Ġë§Įëĵ¤": 2278,
      "anc": 2279,
      "ĠëŁ": 2280,
      "ĠâĢĺ": 2281,
      "ĠìĻĦ": 2282,
      "Ġ22": 2283,
      "fess": 2284,
      "Ġeff": 2285,
      "ilt": 2286,
      "ê·ľ": 2287,
      "Ġbir": 2288,
      "ë¡Ģ": 2289,
      "ãĢī": 2290,
      "ì¦Į": 2291,
      "ped": 2292,
      "mber": 2293,
      "Ġìļ©": 2294,
      "Ġwon": 2295,
      "ë¦¬ë¥¼": 2296,
      "Ġsim": 2297,
      "ster": 2298,
      "Ġ1999": 2299,
      "ham": 2300,
      "Ġmin": 2301,
      "ë³Ģ": 2302,
      "ê²ĥ": 2303,
      "ode": 2304,
      "ĠëıĦìĭľ": 2305,
      "Ġê¶Į": 2306,
      "Ġì¹ĺ": 2307,
      "Ġnear": 2308,
      "ided": 2309,
      "Ġ26": 2310,
      "Ġsince": 2311,
      "ane": 2312,
      "Ġelect": 2313,
      "Ġrece": 2314,
      "ĠEnglish": 2315,
      "lection": 2316,
      "erg": 2317,
      "ĠëĦ¤": 2318,
      "ëĿ½": 2319,
      "sp": 2320,
      "Ġwe": 2321,
      "orm": 2322,
      "ìĬµ": 2323,
      "ĠEurope": 2324,
      "Ġmat": 2325,
      "Ġíķł": 2326,
      "ator": 2327,
      "ese": 2328,
      "Ġcommun": 2329,
      "ĠíĨµíķ´": 2330,
      "Ġ2013": 2331,
      "Ġ27": 2332,
      "ured": 2333,
      "ĠPol": 2334,
      "ring": 2335,
      "ience": 2336,
      "Ġ28": 2337,
      "ëıĦë¡ľ": 2338,
      "ëĿ¼ìĿ´": 2339,
      "ued": 2340,
      "ĠCar": 2341,
      "ì§ĢëĬĶ": 2342,
      "Ġëĭ¤ìĭľ": 2343,
      "ëĮĢë¡ľ": 2344,
      "Ġcity": 2345,
      "American": 2346,
      "ì±ħ": 2347,
      "ë°ķ": 2348,
      "ëĮĢíķľë¯¼êµŃìĿĺ": 2349,
      "Ġpres": 2350,
      "Ġdep": 2351,
      "ĠìłĦìŁģ": 2352,
      "Ġcentury": 2353,
      "ĠìĪľ": 2354,
      "ë³´ëĭ¤": 2355,
      "eter": 2356,
      "ised": 2357,
      "Ġì¶ľìĭł": 2358,
      "cember": 2359,
      "âĢĿ": 2360,
      "íĻľ": 2361,
      "ìĿ´ìĹĪëĭ¤": 2362,
      "Ġclass": 2363,
      "Ġê²ĮìŀĦ": 2364,
      "Ġê·¸ë¦¬ê³ł": 2365,
      "ĠíķĺëĬĶ": 2366,
      "Ġì·¨": 2367,
      "Ġì¶©": 2368,
      "ĠEx": 2369,
      "ĠëĮĢíķ´": 2370,
      "view": 2371,
      "Ġband": 2372,
      "ling": 2373,
      "ĠThey": 2374,
      "ble": 2375,
      "Ġfollowing": 2376,
      "reen": 2377,
      "ĠAf": 2378,
      "ĠSeptember": 2379,
      "åħ": 2380,
      "Ġì£½": 2381,
      "Ġcomple": 2382,
      "ography": 2383,
      "Ġë³ĳ": 2384,
      "ëĲĺê³ł": 2385,
      "ung": 2386,
      "Ġfamily": 2387,
      "Ġdesc": 2388,
      "ì¡´": 2389,
      "Ġ1998": 2390,
      "ended": 2391,
      "ĠJanuary": 2392,
      "ĠJune": 2393,
      "ëģ": 2394,
      "ĠWill": 2395,
      "Ã¡": 2396,
      "On": 2397,
      "Ġpass": 2398,
      "ĠTV": 2399,
      "tle": 2400,
      "ĠìĹ¬ëŁ¬": 2401,
      "apan": 2402,
      "Ġì½": 2403,
      "ĠíĮ¨": 2404,
      "Ġ2014": 2405,
      "Ġë£¨": 2406,
      "Ġhead": 2407,
      "Ġì±Ħ": 2408,
      "Ġocc": 2409,
      "íķĻìŀĲ": 2410,
      "Ġ192": 2411,
      "Ġalong": 2412,
      "ĠOctober": 2413,
      "Ġtr": 2414,
      "ality": 2415,
      "Ġland": 2416,
      "ìľĦìĽĲ": 2417,
      "Ġeach": 2418,
      "ĩ´": 2419,
      "Ġëĸ": 2420,
      "Ġmajor": 2421,
      "ights": 2422,
      "Ġíı¬íķ¨": 2423,
      "ĠìŀĪìĹĪ": 2424,
      "ales": 2425,
      "Ģë¡ľ": 2426,
      "¤Ħ": 2427,
      "century": 2428,
      "ĠíĶĮ": 2429,
      "Ġsupport": 2430,
      "ĠìķĦëĭĪ": 2431,
      "ĠBar": 2432,
      "ĠJuly": 2433,
      "row": 2434,
      "Ġinst": 2435,
      "ze": 2436,
      "Ġvers": 2437,
      "Ġchild": 2438,
      "ĠApril": 2439,
      "Ġtown": 2440,
      "ë´ī": 2441,
      "ĠëĨĴ": 2442,
      "Ġbased": 2443,
      "Ġgames": 2444,
      "195": 2445,
      "ival": 2446,
      "Ġì²«": 2447,
      "Ġmembers": 2448,
      "ords": 2449,
      "ĠìĨĲ": 2450,
      "to": 2451,
      "ĠìĤ¬ë§Ŀ": 2452,
      "ĠHigh": 2453,
      "ëħĲ": 2454,
      "ìĬ¤ëĬĶ": 2455,
      "Ġíģ´": 2456,
      "Ġbegan": 2457,
      "Ġmet": 2458,
      "ĠRep": 2459,
      "Ġworld": 2460,
      "Ġterm": 2461,
      "ĠíĬ¸": 2462,
      "íķĺë©´ìĦľ": 2463,
      "Ġlaw": 2464,
      "ille": 2465,
      "Ġestablished": 2466,
      "Ġgovernment": 2467,
      "Ġíİĺ": 2468,
      "me": 2469,
      "alth": 2470,
      "ĠEast": 2471,
      "Ġíģ°": 2472,
      "Ġsmall": 2473,
      "ìĿ´ì§Ģ": 2474,
      "orks": 2475,
      "ĠState": 2476,
      "ëŁ¼": 2477,
      "Ġdiffer": 2478,
      "ĠìĹŃìĤ¬": 2479,
      "ĠìĽĶ": 2480,
      "ĠëıħìĿ¼": 2481,
      "yp": 2482,
      "ĠìĿĢ": 2483,
      "Ġdid": 2484,
      "ĠìĿ´ìĥģ": 2485,
      "ĠCo": 2486,
      "rench": 2487,
      "aving": 2488,
      "ampionship": 2489,
      "ined": 2490,
      "ê²¨": 2491,
      "íĶĮ": 2492,
      "ĠìĤ¬íļĮ": 2493,
      "uck": 2494,
      "aced": 2495,
      "ëĦĲ": 2496,
      "Ġíļ": 2497,
      "ĠíĴ": 2498,
      "ĠAfter": 2499,
      "±¸": 2500,
      "ëıĦìĿĺ": 2501,
      "Ġplace": 2502,
      "Ġyou": 2503,
      "ì´Ŀ": 2504,
      "ĠâĢľ": 2505,
      "Ġnamed": 2506,
      "30": 2507,
      "ĠAnd": 2508,
      "illion": 2509,
      "TV": 2510,
      "Ġëª¨ëĳĲ": 2511,
      "ĠìľĦì¹ĺ": 2512,
      "íĨµëł¹": 2513,
      "arge": 2514,
      "ebru": 2515,
      "ebruary": 2516,
      "ì°¸": 2517,
      "ĠìĹ°êµ¬": 2518,
      "ë§ī": 2519,
      "ĠãĢĪ": 2520,
      "Ġprom": 2521,
      "Ġì¤ĳêµŃ": 2522,
      "ëĶĶìĺ¤": 2523,
      "Ġ189": 2524,
      "ats": 2525,
      "Ġtit": 2526,
      "):": 2527,
      "ë¡ľìĦľ": 2528,
      "ĠFl": 2529,
      "que": 2530,
      "ĠDecember": 2531,
      "Ġ2015": 2532,
      "Ġeng": 2533,
      "Ġclub": 2534,
      "rew": 2535,
      "Ġcould": 2536,
      "ature": 2537,
      "Ġì¤Ģ": 2538,
      "ĠAb": 2539,
      "ĠìĭĿ": 2540,
      "ĠNovember": 2541,
      "ĠìĿĮìķħ": 2542,
      "atic": 2543,
      "itions": 2544,
      "ĠAir": 2545,
      "Ġ100": 2546,
      "ë¦Ń": 2547,
      "Ġ29": 2548,
      "ì³Ĳ": 2549,
      "ner": 2550,
      "ĠCollege": 2551,
      "augh": 2552,
      "iness": 2553,
      "Ġìłķë¶Ģ": 2554,
      "side": 2555,
      "Ġstr": 2556,
      "ëĤĺëĿ¼": 2557,
      "íĹĮ": 2558,
      "FA": 2559,
      "vers": 2560,
      "urg": 2561,
      "ĠMc": 2562,
      "ëł¸": 2563,
      "Ġ1990": 2564,
      "ĠHar": 2565,
      "rol": 2566,
      "ket": 2567,
      "ĠíķĺìĺĢëĭ¤": 2568,
      "ë°Ľ": 2569,
      "Ġcar": 2570,
      "ides": 2571,
      "ney": 2572,
      "ards": 2573,
      "ìĿ¼ìĹĲ": 2574,
      "ford": 2575,
      "ĠHowever": 2576,
      "ĠRec": 2577,
      "ĠíĤ": 2578,
      "yle": 2579,
      "æĿ": 2580,
      "aul": 2581,
      "ì¸µ": 2582,
      "Ġhome": 2583,
      "Ġ2016": 2584,
      "Ġê·ľ": 2585,
      "ĠíħĮ": 2586,
      "¶ģ": 2587,
      "ëħĦëĮĢ": 2588,
      "ëĤ¬": 2589,
      "Ġperson": 2590,
      "Ġnow": 2591,
      "Ġëª¨ëĵł": 2592,
      "ë§Ĳ": 2593,
      "íļį": 2594,
      "Ġline": 2595,
      "ìĬ¬": 2596,
      "ety": 2597,
      "Ġsuccess": 2598,
      "ìĽ¨": 2599,
      "|-": 2600,
      "ëĭĪìķĦ": 2601,
      "ëĶ": 2602,
      "oad": 2603,
      "Ġaround": 2604,
      "Ġâ": 2605,
      "ĠìĿ´ìļ©": 2606,
      "íĸĪê³ł": 2607,
      "íķĺìĺĢê³ł": 2608,
      "Ġlist": 2609,
      "ĠíĹĪ": 2610,
      "Ġref": 2611,
      "Ġappro": 2612,
      "Ġpar": 2613,
      "uk": 2614,
      "ìĤ¬ë¥¼": 2615,
      "Ġapp": 2616,
      "íĮ¨": 2617,
      "ĠGeor": 2618,
      "ìĵ°": 2619,
      "raft": 2620,
      "Ġcareer": 2621,
      "cted": 2622,
      "ounc": 2623,
      "ìĿ´íĬ¸": 2624,
      "ivision": 2625,
      "ĠPar": 2626,
      "Ġë³Ħ": 2627,
      "ata": 2628,
      "ĠSy": 2629,
      "ìĦ±ìĿĦ": 2630,
      "Ġtelevision": 2631,
      "ĠEn": 2632,
      "ì§ķ": 2633,
      "ìĿ´ìĹĪ": 2634,
      "Ġëĵ±ìĿĺ": 2635,
      "Ġbus": 2636,
      "uthor": 2637,
      "æľ": 2638,
      "ìķĶ": 2639,
      "ê¸°ìĿĺ": 2640,
      "íĶ": 2641,
      "Ġë¬¸ìłľ": 2642,
      "íĥĿ": 2643,
      "ridge": 2644,
      "Ġpos": 2645,
      "ondon": 2646,
      "ëĿ¼ë§Ī": 2647,
      "med": 2648,
      "ĠìķĦìĿ´": 2649,
      "íĺĳ": 2650,
      "aus": 2651,
      "sc": 2652,
      "Ġplayer": 2653,
      "idd": 2654,
      "Ġëľ": 2655,
      "ration": 2656,
      "ìĿ´ê³ł": 2657,
      "Ġleg": 2658,
      "ified": 2659,
      "ì¦Ŀ": 2660,
      "ĠHis": 2661,
      "ĠìŀĳíĴĪ": 2662,
      "ìĿ¼ë³¸": 2663,
      "ìŀĲê°Ģ": 2664,
      "Ġsingle": 2665,
      "ëĭ´": 2666,
      "ĠPart": 2667,
      "ffic": 2668,
      "Ġep": 2669,
      "ë¦¬ìĬ¤": 2670,
      "ê±°ëĤĺ": 2671,
      "íĺ¼": 2672,
      "Ġmanag": 2673,
      "adem": 2674,
      "ps": 2675,
      "ately": 2676,
      "Ġlocal": 2677,
      "ĠJapan": 2678,
      "iod": 2679,
      "ald": 2680,
      "ĠSw": 2681,
      "ĠíĻį": 2682,
      "ì§Ģë¥¼": 2683,
      "oo": 2684,
      "though": 2685,
      "ĠFebruary": 2686,
      "Ġcompet": 2687,
      "ìĦ¼": 2688,
      "ourt": 2689,
      "hem": 2690,
      "aur": 2691,
      "ë¶Ī": 2692,
      "ìłĳ": 2693,
      "key": 2694,
      "Ġlocated": 2695,
      "Ġìĺ¨": 2696,
      "Ġê²½ê¸°": 2697,
      "Ġëħ¼": 2698,
      "Ġbecause": 2699,
      "ìŀĪ": 2700,
      "ently": 2701,
      "Ġdue": 2702,
      "Ġheld": 2703,
      "Ġìĭľì¦Į": 2704,
      "Ġconsid": 2705,
      "ink": 2706,
      "ĠíĶĦëŀĳìĬ¤": 2707,
      "Ġì¡´ìŀ¬": 2708,
      "ĠPark": 2709,
      "tt": 2710,
      "Ġlast": 2711,
      "aim": 2712,
      "ublic": 2713,
      "ì¹ľ": 2714,
      "ĠìľĦíķľ": 2715,
      "ëł¥ìĿĦ": 2716,
      "ĠEl": 2717,
      "ches": 2718,
      "Ġnational": 2719,
      "Ã¼": 2720,
      "ĠëĮĢíĨµëł¹": 2721,
      "ĠComp": 2722,
      "Al": 2723,
      "omin": 2724,
      "ëŀ¨": 2725,
      "ization": 2726,
      "ording": 2727,
      "Ġê²ĥìĿĢ": 2728,
      "ĠëĮĢíķĻ": 2729,
      "eder": 2730,
      "ëįķ": 2731,
      "ĠìĿ´ë£¨": 2732,
      "ilitary": 2733,
      "Ġcompany": 2734,
      "ĠìĦ¤ë¦½": 2735,
      "ĠDav": 2736,
      "ë¶Ģë¶Ħ": 2737,
      "Ġì£¼ìŀ¥": 2738,
      "Ġ1997": 2739,
      "ĠëŁ¬": 2740,
      "Ġvill": 2741,
      "ored": 2742,
      "Ġold": 2743,
      "ìĿ´ìĬ¤": 2744,
      "day": 2745,
      "Ġrequ": 2746,
      "ľĺ": 2747,
      "ĠìŀĪìĸ´": 2748,
      "Ġrefer": 2749,
      "Ġrest": 2750,
      "Ġpo": 2751,
      "lymp": 2752,
      "ëķĮ": 2753,
      "ĠAng": 2754,
      "ĠMe": 2755,
      "int": 2756,
      "Ġpower": 2757,
      "umb": 2758,
      "Ġdet": 2759,
      "ison": 2760,
      "oph": 2761,
      "ody": 2762,
      "Ġbuilt": 2763,
      "íĭĢ": 2764,
      "Ġmen": 2765,
      "ìĥģìĿĦ": 2766,
      "ìĸ´ì§Ħ": 2767,
      "ĩ¼": 2768,
      "Ġlarg": 2769,
      "attle": 2770,
      "Ġorder": 2771,
      "ê³¨": 2772,
      "uman": 2773,
      "ë¦¬ê·¸": 2774,
      "ĠíıĲ": 2775,
      "ĠLondon": 2776,
      "Ġinclude": 2777,
      "Ġtook": 2778,
      "Ġlarge": 2779,
      "Ġpresent": 2780,
      "ĠFrench": 2781,
      "reet": 2782,
      "Ġhel": 2783,
      "Ġallow": 2784,
      "Ġê°Ĳëıħ": 2785,
      "ĠëģĿ": 2786,
      "193": 2787,
      "ana": 2788,
      "Ġleft": 2789,
      "ĠìĭľëĮĢ": 2790,
      "ĠëĤĺíĥĢ": 2791,
      "iven": 2792,
      "į¨": 2793,
      "Ġ1996": 2794,
      "ãĢĭ(": 2795,
      "Ġ1980": 2796,
      "Ġstand": 2797,
      "ìľĦë¥¼": 2798,
      "ĠìĤ¬ê±´": 2799,
      "anguage": 2800,
      "akes": 2801,
      "Ġif": 2802,
      "Ġdown": 2803,
      "ively": 2804,
      "ĠìŀĲìĭłìĿĺ": 2805,
      "ìĿ´ëĬĶ": 2806,
      "ëĮĢíķĻ": 2807,
      "Ġpublished": 2808,
      "íģ´": 2809,
      "Ġ2017": 2810,
      "Ġfilms": 2811,
      "Ġsl": 2812,
      "Ġmember": 2813,
      "ĠíĻĺ": 2814,
      "Ġê´Ģê³Ħ": 2815,
      "ĠMed": 2816,
      "25": 2817,
      "ino": 2818,
      "ĠHer": 2819,
      "Ġmark": 2820,
      "Ġhistory": 2821,
      "Ġevent": 2822,
      "Ġìľ¤": 2823,
      "ara": 2824,
      "Ġresult": 2825,
      "ĠCor": 2826,
      "éĩ": 2827,
      "ĠêµŃìłľ": 2828,
      "alk": 2829,
      "ê°ľìĿĺ": 2830,
      "adio": 2831,
      "ief": 2832,
      "Ġíĺĳ": 2833,
      "ĠëĮĢíĳľ": 2834,
      "ĠBr": 2835,
      "ĠAfric": 2836,
      "Ġì¸": 2837,
      "cast": 2838,
      "Ġcamp": 2839,
      "ington": 2840,
      "Ġsk": 2841,
      "Th": 2842,
      "ler": 2843,
      "Ġshort": 2844,
      "Ġdifferent": 2845,
      "ĠíĶĦë¡ľê·¸": 2846,
      "Ġnorth": 2847,
      "ideo": 2848,
      "conom": 2849,
      "íĺģ": 2850,
      "ĠSec": 2851,
      "uf": 2852,
      "Ġ2018": 2853,
      "ìĤ¼": 2854,
      "ĠëĨį": 2855,
      "ument": 2856,
      "åŃ": 2857,
      "Ġ[": 2858,
      "Ġê°ĢëĬ¥": 2859,
      "Ġë¦¬ê·¸": 2860,
      "ĠWilliam": 2861,
      "Ġ188": 2862,
      "ĠìķĮëł¤": 2863,
      "Ġêµ¬ìĦ±": 2864,
      "ĠìºĲ": 2865,
      "Ġì²ĺìĿĮ": 2866,
      "ĠSup": 2867,
      "ĠíĮĢ": 2868,
      "ĠìłĦíĪ¬": 2869,
      "hern": 2870,
      "Ġwithin": 2871,
      "ociation": 2872,
      "Ġfinal": 2873,
      "íķĺë©´": 2874,
      "ĠCup": 2875,
      "ëĳ": 2876,
      "äº": 2877,
      "ourn": 2878,
      "dom": 2879,
      "He": 2880,
      "Ġlit": 2881,
      "Ġtrad": 2882,
      "Ġpopulation": 2883,
      "ë°©ìĨ¡": 2884,
      "urther": 2885,
      "Ġ$": 2886,
      "Ġoften": 2887,
      "Ġday": 2888,
      "ĠìĿ¼ë°ĺ": 2889,
      "Ġbirths": 2890,
      "ìĿ´ìħĺ": 2891,
      "Ġrepl": 2892,
      "ìŀĲìĿĺ": 2893,
      "Ġ1995": 2894,
      "ency": 2895,
      "par": 2896,
      "Ġë¯¸êµŃìĿĺ": 2897,
      "ries": 2898,
      "ëŁ¬íķľ": 2899,
      "Ġsix": 2900,
      "íĮĢ": 2901,
      "Ġav": 2902,
      ".,": 2903,
      "Ġì¤ĳìĭ¬": 2904,
      "Ġê³µìĭĿ": 2905,
      "íĽĪ": 2906,
      "ĠRuss": 2907,
      "ness": 2908,
      "itional": 2909,
      "Ġë°ľíĳľ": 2910,
      "Ġì¦ī": 2911,
      "Ġeduc": 2912,
      "Ġì¶ľìĥĿ": 2913,
      "Ġíŀ": 2914,
      "ouncil": 2915,
      "ìŀ¥ìĿĦ": 2916,
      "Ġfive": 2917,
      "Ġcharacter": 2918,
      "Ġtop": 2919,
      "rag": 2920,
      "Ġequ": 2921,
      "omb": 2922,
      "Ġlike": 2923,
      "ering": 2924,
      "Ġoriginal": 2925,
      "Ġincre": 2926,
      "Ġsaid": 2927,
      "Ġincluded": 2928,
      "ves": 2929,
      "Ġëľ»": 2930,
      "leg": 2931,
      "Ġê±¸": 2932,
      "ĠìĹĨëĭ¤": 2933,
      "Ġdem": 2934,
      ".)": 2935,
      "ĠAp": 2936,
      "ĠAct": 2937,
      "Ġwar": 2938,
      "ìĽĢ": 2939,
      "ĠëıĻìķĪ": 2940,
      "Ġëĵ±ìŀ¥": 2941,
      "ìĿ´ìŀĲ": 2942,
      "ëĪĦ": 2943,
      "ones": 2944,
      "Ġë§ŀ": 2945,
      "ĠPhil": 2946,
      "Ġì¿": 2947,
      "ĠìĺģêµŃ": 2948,
      "ì¸¡": 2949,
      "ĠTr": 2950,
      "orthern": 2951,
      "ì»µ": 2952,
      "Ġ...": 2953,
      "Ġëī´": 2954,
      "Ġê¸¸": 2955,
      "ë²Į": 2956,
      "oon": 2957,
      "Ġperiod": 2958,
      "Ġ50": 2959,
      "íĦ´": 2960,
      "Ġstill": 2961,
      "oll": 2962,
      "ĠëĤł": 2963,
      "ĠGl": 2964,
      "ĠìĨ¡": 2965,
      "Ġìľ¡": 2966,
      "ë¡ľë¶ĢíĦ°": 2967,
      "ë¸Ķ": 2968,
      "Ġ1994": 2969,
      "Ġcor": 2970,
      "Ġë¡ľë§Ī": 2971,
      "ëĨ": 2972,
      "Ġjust": 2973,
      "Ġê·¹": 2974,
      "ìµľ": 2975,
      "ìĬ¨": 2976,
      "Ġ31": 2977,
      "Ġjoin": 2978,
      "Ġadv": 2979,
      "ì°©": 2980,
      "Ġdescrib": 2981,
      "ìĬ¤íĦ°": 2982,
      "ĠìĿ´ëĬĶ": 2983,
      "ë¦¬ê°Ģ": 2984,
      "ms": 2985,
      "Ġserved": 2986,
      "line": 2987,
      "Ġê°ľë°ľ": 2988,
      "ether": 2989,
      "ocial": 2990,
      "Ġì¼": 2991,
      "ĠOrder": 2992,
      "Ġê·Ģ": 2993,
      "ë¡ľìļ´": 2994,
      "ĠíıŃ": 2995,
      "Ġcountry": 2996,
      "lands": 2997,
      "ĠAg": 2998,
      "ìĨĲ": 2999,
      "ugg": 3000,
      "ë¦¬ìĹĲ": 3001,
      "ë¦¬ì¹´": 3002,
      "ìľ¨": 3003,
      "inning": 3004,
      "Ġê²Ģ": 3005,
      "ĠThere": 3006,
      "cture": 3007,
      "ĠYou": 3008,
      "ìĬĪ": 3009,
      "epend": 3010,
      "iforn": 3011,
      "History": 3012,
      "sk": 3013,
      "aces": 3014,
      "Ġë¬¸íĻĶ": 3015,
      "Ġnon": 3016,
      "êµ°ìĿĺ": 3017,
      "Ġvery": 3018,
      "ìĭľìĿĺ": 3019,
      "Ġanother": 3020,
      "ext": 3021,
      "tain": 3022,
      "ius": 3023,
      "Ġëĳ": 3024,
      "ĠíĤ¤": 3025,
      "ê¸°ê°Ģ": 3026,
      "24": 3027,
      "ëħĦìĹĲëĬĶ": 3028,
      "olic": 3029,
      "ìĭľíĤ¤": 3030,
      "ĠInternational": 3031,
      "ĠAc": 3032,
      "Ġwater": 3033,
      "unicip": 3034,
      "Ġìĺģíĸ¥": 3035,
      "ëĵ¤ê³¼": 3036,
      "ìĿ¸ìĿĺ": 3037,
      "Ġëıħë¦½": 3038,
      "Ġkill": 3039,
      "ev": 3040,
      "Ġcurrent": 3041,
      "ense": 3042,
      "ining": 3043,
      "vious": 3044,
      "ë°Ģ": 3045,
      "Ġê´Ģëł¨": 3046,
      "Ġìļ°ìĬ¹": 3047,
      "Ġappear": 3048,
      "60": 3049,
      "Ġbook": 3050,
      "Ġëĵ±ìĿĦ": 3051,
      "na": 3052,
      "Ġthough": 3053,
      "urs": 3054,
      "Ġwomen": 3055,
      "Ġmillion": 3056,
      "ëıĦë¡Ŀ": 3057,
      "eneral": 3058,
      "ìĹĶ": 3059,
      "ĠItal": 3060,
      "íĶ½": 3061,
      "ëıĮ": 3062,
      "co": 3063,
      "Ġë³¼": 3064,
      "ifornia": 3065,
      "Ġ2019": 3066,
      "ĠìĿ´ë¥¼": 3067,
      "Ġservice": 3068,
      "íĻĶêµŃ": 3069,
      "Ġla": 3070,
      "Ġdeb": 3071,
      "Ġreceived": 3072,
      "Ġìķŀ": 3073,
      "riend": 3074,
      "Ġvis": 3075,
      "Ġcr": 3076,
      "ĠëıĻë¬¸": 3077,
      "ilar": 3078,
      "eek": 3079,
      "ìĦľëĬĶ": 3080,
      "Ġìłĳ": 3081,
      "Ġthird": 3082,
      "ĠEngland": 3083,
      "ĠìĿ´ëŁ¬íķľ": 3084,
      "ĠDist": 3085,
      "Ġeven": 3086,
      "ĠRiver": 3087,
      "Ġë°ľìĥĿ": 3088,
      "Ġcult": 3089,
      "ĠChurch": 3090,
      "rest": 3091,
      "Ġstat": 3092,
      "Ġhand": 3093,
      "Ġsouth": 3094,
      "Ġprofess": 3095,
      "struction": 3096,
      "Ġthose": 3097,
      "Ġë§ī": 3098,
      "Ġ2020": 3099,
      "Ġled": 3100,
      "ours": 3101,
      "´´": 3102,
      "ĠMich": 3103,
      "arried": 3104,
      "Ġauthor": 3105,
      "íĥĪë¦¬ìķĦ": 3106,
      "reg": 3107,
      "ì°¬": 3108,
      "ĠSch": 3109,
      "ĠëĮĢë¶Ģë¶Ħ": 3110,
      "Ġperform": 3111,
      "alt": 3112,
      "Ġê³µê²©": 3113,
      "ìį¨": 3114,
      "Ġresp": 3115,
      "Ġcommon": 3116,
      "ĠìĦĿ": 3117,
      "Ġ1992": 3118,
      "ĠëĲĺìĸ´": 3119,
      "Ġ<": 3120,
      "íķĦ": 3121,
      "Ġbuilding": 3122,
      "Ġëĭ´": 3123,
      "ëħĦë¶ĢíĦ°": 3124,
      "ëĸ": 3125,
      "ë¡ľëĬĶ": 3126,
      "Ġval": 3127,
      "ë¥ł": 3128,
      "ëĭĮ": 3129,
      "de": 3130,
      "aint": 3131,
      "ize": 3132,
      "Ġaff": 3133,
      "ĠRes": 3134,
      "olution": 3135,
      "Ġëĵ±ìĿ´": 3136,
      "Ġìµľì´Ī": 3137,
      "ê¸°ëĬĶ": 3138,
      "umn": 3139,
      "work": 3140,
      "Ġ1970": 3141,
      "Ġeffect": 3142,
      "Ġê²½ìłľ": 3143,
      "ĠAustralia": 3144,
      "Ġorigin": 3145,
      "Ġpost": 3146,
      "ìĿĳ": 3147,
      "Ġtri": 3148,
      "Ġiss": 3149,
      "ummer": 3150,
      "40": 3151,
      "Ġadm": 3152,
      "Ġport": 3153,
      "Ġamong": 3154,
      "íĶĦíĬ¸": 3155,
      "Ġposs": 3156,
      "ë²ĦìĬ¤": 3157,
      "ëıĦë¥¼": 3158,
      "ĠCanada": 3159,
      "ìĭľìĹĲ": 3160,
      "ops": 3161,
      "Ġspe": 3162,
      "Ġë°Ģ": 3163,
      "ĠêµĲìľ¡": 3164,
      "2006": 3165,
      "osp": 3166,
      "ëŀĢëĵľ": 3167,
      "Ġbeg": 3168,
      "íĤ¨": 3169,
      "Ġìŀĺ": 3170,
      "Ġson": 3171,
      "ases": 3172,
      "Ġrepresent": 3173,
      "alf": 3174,
      "ories": 3175,
      "ĠSan": 3176,
      "Ġfac": 3177,
      "Ġì§Ģë°©": 3178,
      "ĠCalifornia": 3179,
      "âĢĶ": 3180,
      "ĠIndian": 3181,
      "ĠíĶĦë¡ľê·¸ëŀ¨": 3182,
      "Ġeast": 3183,
      "ript": 3184,
      "Ġfield": 3185,
      "ĠOlymp": 3186,
      "itar": 3187,
      "Ġê³³": 3188,
      "Ġarch": 3189,
      "ìļ°ìĬ¤": 3190,
      "Ġcrit": 3191,
      "lex": 3192,
      "Ġreport": 3193,
      "uted": 3194,
      "ìĦ±ìĿ´": 3195,
      "ÃŃ": 3196,
      "Ġwest": 3197,
      "´Į": 3198,
      "=\"": 3199,
      "Ġborn": 3200,
      "áĨ": 3201,
      "bert": 3202,
      "Ġë°Ŀ": 3203,
      "Ġversion": 3204,
      "Ġ187": 3205,
      "Ġsold": 3206,
      "ĠìĪĺìĥģ": 3207,
      "oyal": 3208,
      "ĠìĿ´ìłĦ": 3209,
      "ĠìĿ´ìĸ´": 3210,
      "Ġprocess": 3211,
      "Ġëĭ¤ìĿĮê³¼": 3212,
      "Ġíķĺì§Ģë§Į": 3213,
      "Ġ40": 3214,
      "read": 3215,
      "roup": 3216,
      "Ġread": 3217,
      "ìĹĲìĦľëıĦ": 3218,
      "tal": 3219,
      "Ġimport": 3220,
      "ìłķìĿĦ": 3221,
      "ĳ¸": 3222,
      "Ġdied": 3223,
      "lin": 3224,
      "Ġconc": 3225,
      "ìĿµ": 3226,
      "Ġê²°ê³¼": 3227,
      "Ġ1993": 3228,
      "Ġlate": 3229,
      "Ġì¢ĭ": 3230,
      "Ġ=": 3231,
      "ael": 3232,
      "ĠíĸĪ": 3233,
      "Ġexpl": 3234,
      "ole": 3235,
      "Ġes": 3236,
      "Un": 3237,
      "aster": 3238,
      "ë²Ħì§Ģ": 3239,
      "formation": 3240,
      "Ġchildren": 3241,
      "ê·ł": 3242,
      "Ġ1991": 3243,
      "Ġexper": 3244,
      "ìĭľì¼": 3245,
      "Ġìĸ»": 3246,
      "Ġê°ĸ": 3247,
      "ĠArt": 3248,
      "ociety": 3249,
      "ìŀĲë¥¼": 3250,
      "ĠHouse": 3251,
      "app": 3252,
      "ì»¤": 3253,
      "Ġlevel": 3254,
      "ĠìĪĺëıĦ": 3255,
      "Ġepis": 3256,
      "ĠìĦ¤ì¹ĺ": 3257,
      "oe": 3258,
      "Ġmuch": 3259,
      "Ġmag": 3260,
      "ë¦¬ìĿĺ": 3261,
      "ë¦¬ì¦Ī": 3262,
      "omet": 3263,
      "ê°Ī": 3264,
      "ĠTra": 3265,
      "Ġê°ĢìĪĺ": 3266,
      "ĠPres": 3267,
      "ĠPer": 3268,
      "ĠKBS": 3269,
      "Ġclos": 3270,
      "Ġë²Īì§¸": 3271,
      "ama": 3272,
      "Ġì±ħ": 3273,
      "Ġë°ľê²¬": 3274,
      "Ġestablish": 3275,
      "Ġìķ¨": 3276,
      "íĬ¹ë³Ħ": 3277,
      "ë§¹": 3278,
      "Ġì°¸ê°Ģ": 3279,
      "Ġfore": 3280,
      "ctor": 3281,
      "ĠíĥĦ": 3282,
      "bo": 3283,
      "ivil": 3284,
      "ìĤ¬ê°Ģ": 3285,
      "Ġì§Ī": 3286,
      "ë¯Ģë¡ľ": 3287,
      "Ġtechn": 3288,
      "íĩ´": 3289,
      "aff": 3290,
      "Ġchang": 3291,
      "ëĵĿ": 3292,
      "ëĮĢìĿĺ": 3293,
      "Ġmake": 3294,
      "Ġíķĺê³ł": 3295,
      "ample": 3296,
      "ĠíĻĪ": 3297,
      "ĠìĻĢ": 3298,
      "ĠAmer": 3299,
      "hel": 3300,
      "Ġnov": 3301,
      "Ġfre": 3302,
      "Ġbest": 3303,
      "Ġíļ¨": 3304,
      "ĪĪ": 3305,
      "ploy": 3306,
      "ander": 3307,
      "ĠChampionship": 3308,
      "ray": 3309,
      "Ġsit": 3310,
      "ĠìłĪ": 3311,
      "Ġì¤Ħ": 3312,
      "ĠëŁ¬ìĭľìķĦ": 3313,
      "Ġturn": 3314,
      "ëĵ¤ìĹĲê²Į": 3315,
      "Ġkm": 3316,
      "Ġwhat": 3317,
      "Ġíĸ¥": 3318,
      "ĠOne": 3319,
      "ĠìķĶ": 3320,
      "Ġactiv": 3321,
      "ĠChar": 3322,
      "ì¡°ìĦł": 3323,
      "ĠÃ": 3324,
      "ê°Ŀ": 3325,
      "Ġë¸Ķ": 3326,
      "ĠëĤ¨ìŀĲ": 3327,
      "Ġrole": 3328,
      "ush": 3329,
      "irc": 3330,
      "Ġfe": 3331,
      "ë¯¼ì£¼": 3332,
      "Ġproduced": 3333,
      "ĠìĿ¸íķ´": 3334,
      "Ġpat": 3335,
      "Ġinvol": 3336,
      "of": 3337,
      "Ġfun": 3338,
      "ĠìĿ´ìĹĲ": 3339,
      "Ġbusiness": 3340,
      "Ã³": 3341,
      "Ġcover": 3342,
      "Ġë§¡": 3343,
      "Ġel": 3344,
      "ìº": 3345,
      "Ġhistor": 3346,
      "Ġëŀ": 3347,
      "Ġê°Ī": 3348,
      "ĠAward": 3349,
      "ëĤ¬ëĭ¤": 3350,
      "CA": 3351,
      "ĠHol": 3352,
      "Ġsite": 3353,
      "æĸ": 3354,
      "Ġwin": 3355,
      "íħľ": 3356,
      "ê³łëĵ±íķĻêµĲ": 3357,
      "ront": 3358,
      "Ġìĭľê°Ħ": 3359,
      "Ġì¤ĳìķĻ": 3360,
      "ĠìĤ¬ìĭ¤": 3361,
      "ìĸµ": 3362,
      "ĠìĿĺë¯¸": 3363,
      "ĠìĿ¼ìĸ´": 3364,
      "ĠAnt": 3365,
      "ĠMon": 3366,
      "xt": 3367,
      "Ġcame": 3368,
      "artment": 3369,
      "2000": 3370,
      "ĠPort": 3371,
      "ê¸¸": 3372,
      "ĠQu": 3373,
      "Ġfact": 3374,
      "Ġusing": 3375,
      "Ġdel": 3376,
      "ì¿Ħ": 3377,
      "ka": 3378,
      "ĠLa": 3379,
      "ote": 3380,
      "ched": 3381,
      "ĠìĹĶ": 3382,
      "Ġë³Ģê²½": 3383,
      "íĿ¥": 3384,
      "ĠArmy": 3385,
      "ĠRoman": 3386,
      "Ġmoved": 3387,
      "ĠNor": 3388,
      "Ġmale": 3389,
      "ëĬĺ": 3390,
      "An": 3391,
      "rote": 3392,
      "ĠBy": 3393,
      "ëĬĲ": 3394,
      "Ġside": 3395,
      "useum": 3396,
      "Ġbecome": 3397,
      "Ġìłľìŀĳ": 3398,
      "Ã¶": 3399,
      "ape": 3400,
      "ĶëłĪ": 3401,
      "ĠRed": 3402,
      "avy": 3403,
      "ĠìľłëŁ½": 3404,
      "Com": 3405,
      "reek": 3406,
      "ĠAustralian": 3407,
      "Ar": 3408,
      "2008": 3409,
      "ë£¹": 3410,
      "Ġweb": 3411,
      "ìĹĪê³ł": 3412,
      "ĠìĥĿê°ģ": 3413,
      "acks": 3414,
      "Ġê¸°ìĪł": 3415,
      "Ġìļ´ëıĻ": 3416,
      "lear": 3417,
      "Ġtem": 3418,
      "2007": 3419,
      "Ġcompos": 3420,
      "Ġrail": 3421,
      "Ġpe": 3422,
      "Ġsw": 3423,
      "ots": 3424,
      "Ĳëĭ¤": 3425,
      "irl": 3426,
      "abor": 3427,
      "ĠDavid": 3428,
      "ìĻĢìĿĺ": 3429,
      "Ġê°ĻìĿ´": 3430,
      "ĠSm": 3431,
      "ë¥´ëĬĶ": 3432,
      "ìŀĲë¡ľ": 3433,
      "Ġvillage": 3434,
      "Ġstru": 3435,
      "Ġintro": 3436,
      "posed": 3437,
      "Ġvarious": 3438,
      "Ġpopular": 3439,
      "ounced": 3440,
      "ìĺ¬": 3441,
      "ĠMBC": 3442,
      "thern": 3443,
      "bor": 3444,
      "rem": 3445,
      "ĠEm": 3446,
      "off": 3447,
      "ĠëĪĦ": 3448,
      "ĠBel": 3449,
      "ĠPaul": 3450,
      "Ġì¹¨": 3451,
      "ë¬¸íĻĶ": 3452,
      "ëªħìĿĺ": 3453,
      "ĠìŀĲìľł": 3454,
      "Ġgiven": 3455,
      "Ġprevious": 3456,
      "ì¹¨": 3457,
      "Ġwritten": 3458,
      "ament": 3459,
      "Ġengine": 3460,
      "Ġdistrict": 3461,
      "iber": 3462,
      "ì¶©": 3463,
      "Ġgeneral": 3464,
      "Ġele": 3465,
      "Ġ186": 3466,
      "ett": 3467,
      "Ġì§ĢìĽĲ": 3468,
      "Ġhost": 3469,
      "Ġ2021": 3470,
      "Ġstudents": 3471,
      "Ġproject": 3472,
      "ë§ģ": 3473,
      "ìĤ¬ìĿĺ": 3474,
      "2005": 3475,
      "åı": 3476,
      "Ġant": 3477,
      "ëį¸": 3478,
      "forman": 3479,
      "ream": 3480,
      "ĠStreet": 3481,
      "ìĦ±ìĿĺ": 3482,
      "Ġë°ĽìķĦ": 3483,
      "uel": 3484,
      "ico": 3485,
      "Ġtitle": 3486,
      "Ġì²łëıĦ": 3487,
      "Ġpartic": 3488,
      "Ġinit": 3489,
      "Ġì¸¡": 3490,
      "ìĽĶìĹĲ": 3491,
      "Ġë©´": 3492,
      "ìĿ¸ë¯¼": 3493,
      "ìļĶíķľ": 3494,
      "ë¨¼": 3495,
      "eh": 3496,
      "Ġinternational": 3497,
      "ming": 3498,
      "¸ìĹħ": 3499,
      "Ġofficial": 3500,
      "ef": 3501,
      "ville": 3502,
      "outhern": 3503,
      "ëĲĺìĹĪê³ł": 3504,
      "Ġspecies": 3505,
      "ention": 3506,
      "Ġevery": 3507,
      "ological": 3508,
      "Ġhouse": 3509,
      "ym": 3510,
      "field": 3511,
      "ìĬ¤íĥĢ": 3512,
      "Ġfather": 3513,
      "26": 3514,
      "ĠìķĦëĵ¤": 3515,
      "li": 3516,
      "ëł¸ëĭ¤": 3517,
      "ì´Į": 3518,
      "Ġway": 3519,
      "'t": 3520,
      "27": 3521,
      "iron": 3522,
      "flu": 3523,
      "íķĺìĺĢìľ¼ë©°": 3524,
      "Ġsimilar": 3525,
      "Ġfew": 3526,
      "Ġ1988": 3527,
      "ĠRober": 3528,
      "£Ħ": 3529,
      "ĠëĭĪ": 3530,
      "80": 3531,
      "ĠIndia": 3532,
      "Ġclaim": 3533,
      "Ġê³ĦìĨį": 3534,
      "ìŀĲëĬĶ": 3535,
      "Ġgreat": 3536,
      "ning": 3537,
      "ĠìĬĪ": 3538,
      "ead": 3539,
      "ope": 3540,
      "ournal": 3541,
      "anish": 3542,
      "hers": 3543,
      "Ġprote": 3544,
      "Ġvol": 3545,
      "ivid": 3546,
      "Ġì§Ħíĸī": 3547,
      "íĸĪìľ¼ë©°": 3548,
      "Ġê²°ìłķ": 3549,
      "ĠAmerica": 3550,
      "Ġdevelopment": 3551,
      "ination": 3552,
      "ĠCath": 3553,
      "ĠìĬ¤íĥĢ": 3554,
      "site": 3555,
      "íľĺ": 3556,
      "ë²Īì§¸": 3557,
      "Ġ1960": 3558,
      "ìļ´ëıĻ": 3559,
      "iction": 3560,
      "self": 3561,
      "ĠDistrict": 3562,
      "Ġhaving": 3563,
      "Ġ1989": 3564,
      "ê³¼ìĿĺ": 3565,
      "ĠíĬ¹íŀĪ": 3566,
      "ĠíĹ¤": 3567,
      "van": 3568,
      "Ġprim": 3569,
      "Ġìŀ¡": 3570,
      "ĠBra": 3571,
      "Ġmult": 3572,
      "Ġstyle": 3573,
      "otes": 3574,
      "ĠëĮĢíļĮ": 3575,
      "Ġë²Į": 3576,
      "ĠBas": 3577,
      "Ġë¶Ģë¶Ħ": 3578,
      "(,": 3579,
      "Ġproduction": 3580,
      "ogn": 3581,
      "ëłĮ": 3582,
      "ĠParty": 3583,
      "ë¶ĢìĿĺ": 3584,
      "Ġíĸīìłķ": 3585,
      "Ġì¿ł": 3586,
      "ĠìĿ´ê²ĥ": 3587,
      "íķľêµŃ": 3588,
      "Ġíĺķíĥľ": 3589,
      "itor": 3590,
      "Ġship": 3591,
      "ĠìĿ¼ë³¸ìĿĺ": 3592,
      "ĠThese": 3593,
      "ĠRich": 3594,
      "ĠìĥĪë¡ľìļ´": 3595,
      "ĠBo": 3596,
      "ĠDivision": 3597,
      "Ġë´ī": 3598,
      "ĠTur": 3599,
      "ests": 3600,
      "ĠíĥĪ": 3601,
      "iment": 3602,
      "ìľĦìĽĲíļĮ": 3603,
      "sequ": 3604,
      "ê·Ģ": 3605,
      "ĠEuropean": 3606,
      "Ġêµ¬ê°Ħ": 3607,
      "rap": 3608,
      "Ġwent": 3609,
      "ĠLou": 3610,
      "áĦ": 3611,
      "Ġmilitary": 3612,
      "ha": 3613,
      "align": 3614,
      "Ġsent": 3615,
      "28": 3616,
      "Ġhowever": 3617,
      "ĠJames": 3618,
      "ìŀĪëĬĶ": 3619,
      "ĠDr": 3620,
      "ĠMor": 3621,
      "aken": 3622,
      "Ġbre": 3623,
      "ìĿ¸ìĿ´": 3624,
      "29": 3625,
      "rian": 3626,
      "ĠëĤľ": 3627,
      "Ġíĺ¼": 3628,
      "ĠRoad": 3629,
      "åľ": 3630,
      "ĠDes": 3631,
      "Ġyoung": 3632,
      "Ġcomb": 3633,
      "ë¥´íģ¬": 3634,
      "ĠAssociation": 3635,
      "Ġworks": 3636,
      "Ġopened": 3637,
      "ances": 3638,
      "Ġspecial": 3639,
      "era": 3640,
      "Ġgl": 3641,
      "íļ¨": 3642,
      "Ġcreated": 3643,
      "Ġìĸ´ëĸ": 3644,
      "Ġhig": 3645,
      "Ġë°ľë§¤": 3646,
      "ĠĠĠĠĠĠĠĠ": 3647,
      "Ġter": 3648,
      "ĠGeorge": 3649,
      "ìĭĿìĿĦ": 3650,
      "iol": 3651,
      "erb": 3652,
      "ĠDep": 3653,
      "KBS": 3654,
      "Ġproduc": 3655,
      "Ġíĭ": 3656,
      "ago": 3657,
      "ĠìĦ±ê³µ": 3658,
      "Ġê³¨": 3659,
      "ĠVal": 3660,
      "Ġë§¤ìļ°": 3661,
      "ì²ĺëŁ¼": 3662,
      "ľ´": 3663,
      "Ġnext": 3664,
      "ĠGermany": 3665,
      "NA": 3666,
      "ìĺ¥": 3667,
      "Ġeconom": 3668,
      "icle": 3669,
      "ators": 3670,
      "íĸĪëįĺ": 3671,
      "Ġbroad": 3672,
      "Ġtimes": 3673,
      "Ġpri": 3674,
      "ule": 3675,
      "Ġtake": 3676,
      "ĠQue": 3677,
      "Ġtw": 3678,
      "ĠUnion": 3679,
      "ë·": 3680,
      "ulations": 3681,
      "Ġìķħ": 3682,
      "Ġcommunity": 3683,
      "Ġì»¤": 3684,
      "Ġconf": 3685,
      "ached": 3686,
      "urb": 3687,
      "Ġìµľê³ł": 3688,
      "æ°": 3689,
      "oor": 3690,
      "ìĹĺ": 3691,
      "Ġneed": 3692,
      "Ġvoc": 3693,
      "ê¶ģ": 3694,
      "ĠCouncil": 3695,
      "Ġregion": 3696,
      "Ġconsidered": 3697,
      "inister": 3698,
      "ari": 3699,
      "ma": 3700,
      "Ġê°Ģì§Ģê³ł": 3701,
      "ĠPress": 3702,
      "Ġìĥģíĥľ": 3703,
      "Ġbeh": 3704,
      "ĠìĿ¸ë¬¼": 3705,
      "ĠìĹĨëĬĶ": 3706,
      "Ġareas": 3707,
      "Ġpolitical": 3708,
      "less": 3709,
      "Ġ1987": 3710,
      "Ġlim": 3711,
      "ĠìĿ´íĥĪë¦¬ìķĦ": 3712,
      "ìĬ¤íģ¬": 3713,
      "2004": 3714,
      "łëĭ¤": 3715,
      "ĠRecords": 3716,
      "Ġsol": 3717,
      "ì§Ģë¡ľ": 3718,
      "ĠâĨ": 3719,
      "ĠFrance": 3720,
      "itz": 3721,
      "Ġvideo": 3722,
      "Ġìĸ¸ìĸ´": 3723,
      "ston": 3724,
      "êµ¬ìĿĺ": 3725,
      "ìĬ¤íħľ": 3726,
      "ĠìķĬìķĺëĭ¤": 3727,
      "íĺĢ": 3728,
      "å¤§": 3729,
      "Ġaward": 3730,
      "Ġê³¡": 3731,
      "iddle": 3732,
      "íķĺê¸°ëıĦ": 3733,
      "ëĮĢë¥¼": 3734,
      "ĠëĮĢíķĻêµĲ": 3735,
      "ateg": 3736,
      "ĠíĦ": 3737,
      "Ġcontrol": 3738,
      "km": 3739,
      "ean": 3740,
      "Ġìłķë³´": 3741,
      "ìĹĲìĦľìĿĺ": 3742,
      "Ġmunicip": 3743,
      "Ġì°¾": 3744,
      "cer": 3745,
      "Ġ2022": 3746,
      "ĠWhen": 3747,
      "ĠëĦĺ": 3748,
      "Ġwithout": 3749,
      "Ġgr": 3750,
      "Ġë¨¸": 3751,
      "ĠëĿ¼ìĿ´": 3752,
      "Ġìļ´ìĺģ": 3753,
      "ĠìĽĶëĵľ": 3754,
      "ëĲł": 3755,
      "Ġê¸°ì¤Ģ": 3756,
      "ĠMy": 3757,
      "ĠThom": 3758,
      "íĴį": 3759,
      "ìĪĻ": 3760,
      "ĠâĢĶ": 3761,
      "¿Ĳ": 3762,
      "ìĹŃìĤ¬": 3763,
      "ê¶ĮìĿĦ": 3764,
      "ìķķ": 3765,
      "Ġimp": 3766,
      "Ġinf": 3767,
      "rated": 3768,
      "ìĪĺìĿĺ": 3769,
      "ĠStud": 3770,
      "stitute": 3771,
      "ê¹Ģ": 3772,
      "ĠHall": 3773,
      "190": 3774,
      "Ġ1986": 3775,
      "ĠKingdom": 3776,
      "raw": 3777,
      "ĠìŀĪëįĺ": 3778,
      "ëĮĢíĳľ": 3779,
      "Ġage": 3780,
      "Ġexample": 3781,
      "Ġsee": 3782,
      "ëªħìĿĦ": 3783,
      "ister": 3784,
      "®¤": 3785,
      "Ġ()": 3786,
      "ëŀµ": 3787,
      "Ġìķ¼êµ¬": 3788,
      "Ġannounced": 3789,
      "People": 3790,
      "Ġpract": 3791,
      "ëħĦê¹Įì§Ģ": 3792,
      "Ġright": 3793,
      "°ëĭ¤": 3794,
      "Ġê³łëł¤": 3795,
      "eal": 3796,
      "ìľ¼ë¡ľìĦľ": 3797,
      "now": 3798,
      "Ġì°¸ìĹ¬": 3799,
      "Ġê¸Ģ": 3800,
      "ĠBlack": 3801,
      "ype": 3802,
      "Ġstarted": 3803,
      "Ġë²Ķ": 3804,
      "ĠëıĮìķĦ": 3805,
      "ĠBer": 3806,
      "Ġê¸°ìĹħ": 3807,
      "ĠGeneral": 3808,
      "2009": 3809,
      "Ġident": 3810,
      "ìĬ¤ë¥¼": 3811,
      "Ġê¸ī": 3812,
      "ĠClub": 3813,
      "Ġpolitic": 3814,
      "ĠìĿ´ìľł": 3815,
      "ĠPal": 3816,
      "west": 3817,
      "ì¹Ļ": 3818,
      "åĲ": 3819,
      "Ġcoach": 3820,
      "ìĦľìļ¸": 3821,
      "utes": 3822,
      "ê¸°ë¡ľ": 3823,
      "iers": 3824,
      "ëıĦê°Ģ": 3825,
      "lected": 3826,
      "ketball": 3827,
      "ĠêµŃë¯¼": 3828,
      "Ġattem": 3829,
      "Ġstory": 3830,
      "As": 3831,
      "Ġtotal": 3832,
      "berg": 3833,
      "aining": 3834,
      "ĠMag": 3835,
      "ĵ¨": 3836,
      "ë¹ĦìķĦ": 3837,
      "Ġgroups": 3838,
      "wood": 3839,
      "ellow": 3840,
      "ources": 3841,
      "Ġlanguage": 3842,
      "Ġëĭ¤ìĸĳ": 3843,
      "Ġattack": 3844,
      "ĠMal": 3845,
      "Ġtyp": 3846,
      "ì°¸ê³ł": 3847,
      "Ġgrad": 3848,
      "Ġíŀĺ": 3849,
      "ëĭĪëĭ¤": 3850,
      "II": 3851,
      "ĠíĹĮ": 3852,
      "men": 3853,
      "Ġgen": 3854,
      "apt": 3855,
      "Ġschools": 3856,
      "Ġë§İìĿ´": 3857,
      "yd": 3858,
      "ë²¨": 3859,
      "ĠìķĦëĭĪëĿ¼": 3860,
      "ë¨¸ëĭĪ": 3861,
      "2010": 3862,
      "íı´": 3863,
      "Ġindust": 3864,
      "Ġ1985": 3865,
      "uit": 3866,
      "éĩĳ": 3867,
      "rick": 3868,
      "Ġposition": 3869,
      "etwork": 3870,
      "ĠìŀĪê³ł": 3871,
      "Ġpoint": 3872,
      "Ġrese": 3873,
      "íķ´ìĦľ": 3874,
      "Ġì£¼ë¡ľ": 3875,
      "Ġì¡¸ìĹħ": 3876,
      "ĠìķĬê³ł": 3877,
      "ìľ¤": 3878,
      "atter": 3879,
      "Ġconne": 3880,
      "ĠìĥĿìĤ°": 3881,
      "rab": 3882,
      "Ġroad": 3883,
      "åį": 3884,
      "ĠRoyal": 3885,
      "ĠëĤ´ìļ©": 3886,
      "ìĬ¤ê°Ģ": 3887,
      "ĠìĹ¬ìŀĲ": 3888,
      "ither": 3889,
      "Ġì»´": 3890,
      "éģ": 3891,
      "odes": 3892,
      "ë¦´": 3893,
      "Ġwrote": 3894,
      "mit": 3895,
      "ested": 3896,
      "Ġfull": 3897,
      "ëĭĪë©Ķ": 3898,
      "ĠDuring": 3899,
      "istan": 3900,
      "uation": 3901,
      "ĠCanadian": 3902,
      "Ġë°©ë²ķ": 3903,
      "íķĺìŀĲ": 3904,
      "ising": 3905,
      "ipp": 3906,
      "Ġperforman": 3907,
      "ĠëĵľëĿ¼ë§Ī": 3908,
      "Ġìķ¨ë²Ķ": 3909,
      "ably": 3910,
      "ë¦¼íĶ½": 3911,
      "ãĢį": 3912,
      "Ġren": 3913,
      "Ġcaus": 3914,
      "ëĤ¸": 3915,
      "rack": 3916,
      "wh": 3917,
      "ĠëĮĢìłĦ": 3918,
      "ëĲĺì§Ģ": 3919,
      "right": 3920,
      "Ġê°Ļëĭ¤": 3921,
      "Ġì¼Ģ": 3922,
      "ĠFI": 3923,
      "acy": 3924,
      "ë¹ĦìłĦ": 3925,
      "ili": 3926,
      "Ġreturned": 3927,
      "uff": 3928,
      "Ġmodern": 3929,
      "used": 3930,
      "ĠìķĬëĬĶëĭ¤": 3931,
      "Ġcontinued": 3932,
      "Ġdescribed": 3933,
      "After": 3934,
      "Ġaut": 3935,
      "Ġìħ": 3936,
      "ĠJew": 3937,
      "eball": 3938,
      "ĠìķĦë²Ħì§Ģ": 3939,
      "ĠMusic": 3940,
      "iles": 3941,
      "Ġless": 3942,
      "ìľ¼ë¡ľëĬĶ": 3943,
      "å¾": 3944,
      "ì±Ħ": 3945,
      "íĺ¸ìĦł": 3946,
      "ĠServ": 3947,
      "ê¸´": 3948,
      "ills": 3949,
      "Ġstations": 3950,
      "ëĭĺ": 3951,
      "å±": 3952,
      "Ġinflu": 3953,
      "ference": 3954,
      "Ġ1984": 3955,
      "Ġdeveloped": 3956,
      "Ġimportant": 3957,
      "udd": 3958,
      "cts": 3959,
      "Pro": 3960,
      "ways": 3961,
      "Ġhuman": 3962,
      "ĠChristian": 3963,
      "Ġëªĩ": 3964,
      "play": 3965,
      "Ġê²°êµŃ": 3966,
      "Ġguitar": 3967,
      "ãĢĬ": 3968,
      "Ġrul": 3969,
      "Ġproper": 3970,
      "Ġoffer": 3971,
      "ges": 3972,
      "craft": 3973,
      "ĠProv": 3974,
      "ìĿ¸ë¯¼ê³µ": 3975,
      "ya": 3976,
      "idence": 3977,
      "2002": 3978,
      "rain": 3979,
      "ells": 3980,
      "å°": 3981,
      "Ġíķ´ëĭ¹": 3982,
      "here": 3983,
      "Ġreal": 3984,
      "Ġë°Ľìķĺëĭ¤": 3985,
      "aper": 3986,
      "çİ": 3987,
      "Ġ1983": 3988,
      "ĠPat": 3989,
      "ëª¬": 3990,
      "å·": 3991,
      "ë¹Ī": 3992,
      "Ġfind": 3993,
      "ì¢": 3994,
      "ĠNe": 3995,
      "Ġpoin": 3996,
      "ĠMart": 3997,
      "ĠSte": 3998,
      "Ġalbums": 3999,
      "ying": 4000,
      "Ġz": 4001,
      "ĠScott": 4002,
      "ccording": 4003,
      "anies": 4004,
      "ĠGreat": 4005,
      "Ġì½ĺ": 4006,
      "Ġêµ¬ì¡°": 4007,
      "Ġcond": 4008,
      "Ġhalf": 4009,
      "ĠìłľêµŃ": 4010,
      "val": 4011,
      "ĠìĬ¤íİĺ": 4012,
      "æĺ": 4013,
      "han": 4014,
      "arent": 4015,
      "ertain": 4016,
      "Ġrelations": 4017,
      "ashington": 4018,
      "ëĭĪë©ĶìĿ´ìħĺ": 4019,
      "ending": 4020,
      "ëªħìĿ´": 4021,
      "Ġparticular": 4022,
      "çĶ": 4023,
      "ĠTrans": 4024,
      "Ġappeared": 4025,
      "Ġhold": 4026,
      "ĠìĿ¸íĦ°": 4027,
      "Ġdoes": 4028,
      "ĠArch": 4029,
      "Ġevents": 4030,
      "ĠíĥĢìĿ´": 4031,
      "Ġview": 4032,
      "most": 4033,
      "ê´´": 4034,
      "Ġdiv": 4035,
      "70": 4036,
      "ĠJos": 4037,
      "ids": 4038,
      "Ġë¹ł": 4039,
      "Ġfriend": 4040,
      "Ġcase": 4041,
      "Ġê³Ħíļį": 4042,
      "Ġmy": 4043,
      "ë¦¬ê³ł": 4044,
      "Ġdeaths": 4045,
      "ĠFootball": 4046,
      "ĠêµĲíĻ©": 4047,
      "ĠPresident": 4048,
      "ĠLaw": 4049,
      "Ġ1982": 4050,
      "35": 4051,
      "ìŀ¡": 4052,
      "2003": 4053,
      "ìĪĺë¥¼": 4054,
      "ibr": 4055,
      "ishing": 4056,
      "189": 4057,
      "ìŀ¥ìĿ´": 4058,
      "ĠCatholic": 4059,
      "Ġdays": 4060,
      "Ġ1979": 4061,
      "Ġround": 4062,
      "Ġëĸ¨": 4063,
      "arly": 4064,
      "aut": 4065,
      "Ġëĳĺ": 4066,
      "Ġindepend": 4067,
      "ethod": 4068,
      "Ġbody": 4069,
      "ìĽĲìłĦ": 4070,
      "Ġservices": 4071,
      "Ġappl": 4072,
      "ìĹĦ": 4073,
      "ication": 4074,
      "ged": 4075,
      "ification": 4076,
      "ĠSk": 4077,
      "ìĽĲìĿĦ": 4078,
      "hib": 4079,
      "atch": 4080,
      "ìĿį": 4081,
      "Ġtrack": 4082,
      "íķĻê³¼": 4083,
      "Am": 4084,
      "íĵ¨": 4085,
      "ê°ĦìĿĺ": 4086,
      "ĠCompany": 4087,
      "ĠìĹħ": 4088,
      "ĠGroup": 4089,
      "ground": 4090,
      "Ġanim": 4091,
      "ĠĊĠ": 4092,
      "Ġëħ¸ìĦł": 4093,
      "Ġìĭ±": 4094,
      "ĠWith": 4095,
      "Ġì¢Į": 4096,
      "Ġindivid": 4097,
      "oks": 4098,
      "ensive": 4099,
      "Ġshould": 4100,
      "Ġleague": 4101,
      "Ġë§ĪìĿ´": 4102,
      "ger": 4103,
      "íĻķ": 4104,
      "ì¹¸": 4105,
      "Ġrock": 4106,
      "ras": 4107,
      "ëĵľëĬĶ": 4108,
      "Ġfounded": 4109,
      "reland": 4110,
      "Ġformed": 4111,
      "ìĽĲìĿĺ": 4112,
      "ê±°ë¦¬": 4113,
      "Ġì°¨ì§Ģ": 4114,
      "ien": 4115,
      "ults": 4116,
      "year": 4117,
      "ĠWe": 4118,
      "ened": 4119,
      "SA": 4120,
      "itive": 4121,
      "roll": 4122,
      "atural": 4123,
      "Ġsepar": 4124,
      "Ġdi": 4125,
      "arliam": 4126,
      "ĠëĶ¸": 4127,
      "ĠIsland": 4128,
      "48": 4129,
      "Ġlive": 4130,
      "ij": 4131,
      "Ġavail": 4132,
      "ĠRail": 4133,
      "Ġbrother": 4134,
      "ware": 4135,
      "Ġexist": 4136,
      "burg": 4137,
      "ìľ¼ë¡ľìį¨": 4138,
      "ĊĊĠ": 4139,
      "Ġfurther": 4140,
      "ĠAcadem": 4141,
      "ëłī": 4142,
      "ockey": 4143,
      "Ġ1950": 4144,
      "ëĤĺëĬĶ": 4145,
      "ele": 4146,
      "ìĿĮìĿĦ": 4147,
      "istic": 4148,
      "ĠAngel": 4149,
      "íķĺëł¤": 4150,
      "Ġrev": 4151,
      "ĠíĺĦëĮĢ": 4152,
      "Ġsongs": 4153,
      "Ġrecorded": 4154,
      "ĠSl": 4155,
      "nel": 4156,
      "oul": 4157,
      "Ġmater": 4158,
      "Ġë°ľìłĦ": 4159,
      "Ġaddition": 4160,
      "Ġê±°ìĿĺ": 4161,
      "Ġgood": 4162,
      "íĻį": 4163,
      "ĠHen": 4164,
      "Ġeducation": 4165,
      "ĠíĻ©ìłľ": 4166,
      "ĠìĦłê±°": 4167,
      "æĿİ": 4168,
      "ëĲĺìĹĪìľ¼ë©°": 4169,
      "Ġground": 4170,
      "MBC": 4171,
      "cks": 4172,
      "Ġjoined": 4173,
      "Ġchurch": 4174,
      "ĠVir": 4175,
      "Ġ1981": 4176,
      "Ġgrow": 4177,
      "Ġwebsite": 4178,
      "ĠAlex": 4179,
      "ĠìĦ¬": 4180,
      "Ġins": 4181,
      "ĠìĿ¸êµ¬": 4182,
      "arliament": 4183,
      "ĠíķĺìĹ¬": 4184,
      "Ġteams": 4185,
      "Ġcross": 4186,
      "ĠCourt": 4187,
      "Ġê²©": 4188,
      "ĠCont": 4189,
      "Ġë¥": 4190,
      "Cl": 4191,
      "ĠCro": 4192,
      "uter": 4193,
      "ìľ¼ë¡ľë¶ĢíĦ°": 4194,
      "ĠFirst": 4195,
      "Ġpriv": 4196,
      "ĠWestern": 4197,
      "Ġworked": 4198,
      "íĻĶë¥¼": 4199,
      "Ġmarried": 4200,
      "Ġlow": 4201,
      "ida": 4202,
      "Ġëĸł": 4203,
      "ëĤ¨ëıĦ": 4204,
      "ĠìĨĮìĨį": 4205,
      "ëł¥ìĿ´": 4206,
      "ìĥĪ": 4207,
      "Ġíĥľìĸ´": 4208,
      "Ġbi": 4209,
      "Ġì¡°ì§ģ": 4210,
      "ë¡¯": 4211,
      "ĠìĭľìĬ¤íħľ": 4212,
      "Ġothers": 4213,
      "ìĻĦ": 4214,
      "ĠìĭľìłĪ": 4215,
      "ì§Ģë§ī": 4216,
      "ìĿ¸ëĭ¤": 4217,
      "ĠSociety": 4218,
      "ìŀĲìĿ¸": 4219,
      "ĠMex": 4220,
      "gin": 4221,
      "íŀ": 4222,
      "Ġrelig": 4223,
      "ëıĻì°¨": 4224,
      "ìĹ°êµ¬": 4225,
      "Ġlost": 4226,
      "ĠìłĦì²´": 4227,
      "Ġten": 4228,
      "ĠêµĲìĪĺ": 4229,
      "êµ°ìĿĢ": 4230,
      "ë³¼": 4231,
      "Ġìľłëªħ": 4232,
      "ä¹": 4233,
      "imately": 4234,
      "Ġpresident": 4235,
      "Ġder": 4236,
      "Ġdecl": 4237,
      "Ġë§Įëĵ¤ìĸ´": 4238,
      "Ġëį°ìĿ´": 4239,
      "Ġë¯¼ì£¼": 4240,
      "Ġbelie": 4241,
      "Ġet": 4242,
      "stro": 4243,
      "ential": 4244,
      "ĠRobert": 4245,
      "ĠDon": 4246,
      "ĠVol": 4247,
      "Ġhimself": 4248,
      "duction": 4249,
      "Ġadminist": 4250,
      "Ġdirector": 4251,
      "ë¥Ļ": 4252,
      "It": 4253,
      "Ġ60": 4254,
      "ping": 4255,
      "aughter": 4256,
      "oice": 4257,
      "ĠMary": 4258,
      "Ġëħ¸ëŀĺ": 4259,
      "ĠList": 4260,
      "ĠUK": 4261,
      "ĠBay": 4262,
      "iting": 4263,
      "Ġsqu": 4264,
      "Living": 4265,
      "rd": 4266,
      "Ġalthough": 4267,
      "oney": 4268,
      "Ġì£¼ìļĶ": 4269,
      "ĠìĿ´ë¯¸": 4270,
      "Ġë¶ĢìĤ°": 4271,
      "ĠMiss": 4272,
      "ĠMount": 4273,
      "ĠBest": 4274,
      "Ġnovel": 4275,
      "45": 4276,
      "ëĦ·": 4277,
      "ĠIreland": 4278,
      "Ġì¶ľìĹ°": 4279,
      "Ġnever": 4280,
      "Ġëª°": 4281,
      "Eng": 4282,
      "ĠCommun": 4283,
      "Ġvict": 4284,
      "ilities": 4285,
      "ĠWashington": 4286,
      "ĠMichael": 4287,
      "ĠGod": 4288,
      "Ġelection": 4289,
      "ements": 4290,
      "íķĺëįĺ": 4291,
      "atre": 4292,
      "Ġì¹¼": 4293,
      "Ġfem": 4294,
      "Pl": 4295,
      "ĠëĬ¥": 4296,
      "ìĸ´ë¡ľ": 4297,
      "Ġmaking": 4298,
      "ership": 4299,
      "ìļ±": 4300,
      "Ġìĩ¼": 4301,
      "Ġìŀł": 4302,
      "alls": 4303,
      "ĶëłĪë¹ĦìłĦ": 4304,
      "ĠPri": 4305,
      "ĠCenter": 4306,
      "Ġphys": 4307,
      "Ġíı´": 4308,
      "Ġê·¸ë¦¬ìĬ¤": 4309,
      "ĠSal": 4310,
      "umni": 4311,
      "Ġ#": 4312,
      "ê´ĳìĹŃ": 4313,
      "olit": 4314,
      "ĠDem": 4315,
      "íĨ¨": 4316,
      "aign": 4317,
      "viron": 4318,
      "2001": 4319,
      "ĠJapanese": 4320,
      "Ġlight": 4321,
      "Ġê·¸ëħĢ": 4322,
      "ointed": 4323,
      "itch": 4324,
      "isl": 4325,
      "ĠFC": 4326,
      "ĠíķĦìļĶ": 4327,
      "ĠëĶ°ë¥´": 4328,
      "Ġmot": 4329,
      "ique": 4330,
      "ude": 4331,
      "Ġmid": 4332,
      "¾¸": 4333,
      "ĠSam": 4334,
      "íĭ´": 4335,
      "Ġfail": 4336,
      "ability": 4337,
      "eph": 4338,
      "Ġsocial": 4339,
      "ìļķ": 4340,
      "pite": 4341,
      "ades": 4342,
      "be": 4343,
      "Ġmiss": 4344,
      "aries": 4345,
      "Ġbecom": 4346,
      "Ġì§ģìłĳ": 4347,
      "ĠCentral": 4348,
      "ëĭ¤ê°Ģ": 4349,
      "ĠìĿ¸ìłķ": 4350,
      "ĠTex": 4351,
      "Ġrelease": 4352,
      "itte": 4353,
      "Ġstrong": 4354,
      "Ġê´Ģíķľ": 4355,
      "Ġradio": 4356,
      "ĠëĤĺëĿ¼": 4357,
      "Ġë¯¼ì¡±": 4358,
      "Ġ185": 4359,
      "ĠìĹŃíķł": 4360,
      "ĠMark": 4361,
      "Ġmust": 4362,
      "ĠChe": 4363,
      "usical": 4364,
      "olf": 4365,
      "ergy": 4366,
      "Ġê³¼ìłķ": 4367,
      "aker": 4368,
      "ĠìĿ´ìķ¼": 4369,
      "elt": 4370,
      "ume": 4371,
      "Ġide": 4372,
      "ĠëĪĪ": 4373,
      "áĨŀ": 4374,
      "ĠLouis": 4375,
      "sy": 4376,
      "ĠSim": 4377,
      "éĻ": 4378,
      "Ġavailable": 4379,
      "Ġcoll": 4380,
      "Ġdoc": 4381,
      "anted": 4382,
      "ederal": 4383,
      "ĠGr": 4384,
      "ĠíķŃê³µ": 4385,
      "ë¥´íĬ¸": 4386,
      "adium": 4387,
      "ìĺĢëįĺ": 4388,
      "ì§Ħëĭ¤": 4389,
      "Ġparticip": 4390,
      "ĠSen": 4391,
      "ĠDay": 4392,
      "Ġfire": 4393,
      "æŃ": 4394,
      "Ġcompleted": 4395,
      "ìĤ¬ë¡ľ": 4396,
      "ìļ´ëį°": 4397,
      "ĠíĴį": 4398,
      "Ġdev": 4399,
      "Ġìĺ¬ë¦¼íĶ½": 4400,
      "Ġinvest": 4401,
      "cle": 4402,
      "ĊĠĊ": 4403,
      "Ġacross": 4404,
      "Ġtro": 4405,
      "utions": 4406,
      "time": 4407,
      "ula": 4408,
      "ëıĦëĬĶ": 4409,
      "Ġhon": 4410,
      "ĠMac": 4411,
      "ĠìķłëĭĪë©ĶìĿ´ìħĺ": 4412,
      "Ġ|": 4413,
      "ĠíķĻêµĲ": 4414,
      "Ġìłľê³µ": 4415,
      "Ġtog": 4416,
      "ì£Ħ": 4417,
      "ìĥģìĿĺ": 4418,
      "Ġweek": 4419,
      "ĠYear": 4420,
      "ìĿ´ê°Ģ": 4421,
      "Ġê³µëıĻ": 4422,
      "ì§ĢìĿĺ": 4423,
      "Ġexec": 4424,
      "ĠëıĦì¿Ħ": 4425,
      "Ġepisode": 4426,
      "ceed": 4427,
      "íĵ¨íĦ°": 4428,
      "ĠCap": 4429,
      "Ġcast": 4430,
      "ĠíĶĦë¦¬": 4431,
      "\")": 4432,
      "ĠìĤ¬ëŀĳ": 4433,
      "anding": 4434,
      "Ġemploy": 4435,
      "¹ìĿĢ": 4436,
      "De": 4437,
      "Ġtogether": 4438,
      "Ġìĸ¼": 4439,
      "ĠìĿ´ëģ": 4440,
      "ì»¬": 4441,
      "Ġrecogn": 4442,
      "Ġìķķ": 4443,
      "ì¢Į": 4444,
      "90": 4445,
      "Ġì¶Ķê°Ģ": 4446,
      "Ġarr": 4447,
      "Ġë§Īì§Ģë§ī": 4448,
      "ìĤ¬ëĬĶ": 4449,
      "ĠGold": 4450,
      "unk": 4451,
      "Ġassist": 4452,
      "33": 4453,
      "Ġìŀĳê³¡": 4454,
      "Ġanal": 4455,
      "ificant": 4456,
      "Ġpoints": 4457,
      "ìĬ¤íĥĦ": 4458,
      "ë¦¬ìĺ¤": 4459,
      "ĠíĦ°": 4460,
      "ishop": 4461,
      "bour": 4462,
      "Ġparty": 4463,
      "ìłľë¡ľ": 4464,
      "mar": 4465,
      "ĠOp": 4466,
      "Ġstar": 4467,
      "ä»": 4468,
      "2011": 4469,
      "ĠëĮĢìĭł": 4470,
      "éĥ": 4471,
      "atin": 4472,
      "oms": 4473,
      "ĠInter": 4474,
      "ëłĩ": 4475,
      "Ġ1976": 4476,
      "ëıħêµĲ": 4477,
      "inter": 4478,
      "Ġproble": 4479,
      "ĠíĬ¹ë³Ħ": 4480,
      "Ġfree": 4481,
      "Ġ1978": 4482,
      "writ": 4483,
      "aches": 4484,
      "47": 4485,
      "Ġmeet": 4486,
      "rish": 4487,
      "azine": 4488,
      "ĠCharles": 4489,
      "igned": 4490,
      "ores": 4491,
      "Ġìĺģíĸ¥ìĿĦ": 4492,
      "ĠíĳľíĺĦ": 4493,
      "ĠChina": 4494,
      "Ġlargest": 4495,
      "Ġcontract": 4496,
      "Ġprofessional": 4497,
      "Ġê·¸ë£¹": 4498,
      "ìłĦìĿĦ": 4499,
      "Ġred": 4500,
      "annel": 4501,
      "ĠZeal": 4502,
      "ê°ĢëĬĶ": 4503,
      "estival": 4504,
      "Ġhow": 4505,
      "oted": 4506,
      "Ġ1972": 4507,
      "ĠìĹ°ê²°": 4508,
      "Ġdeg": 4509,
      "Ġinformation": 4510,
      "Ġìĭľë¦¬ì¦Ī": 4511,
      "Sh": 4512,
      "Ġmaterial": 4513,
      "Ġìľłì§Ģ": 4514,
      "Ġ1974": 4515,
      "Ġfollowed": 4516,
      "Ġmarket": 4517,
      "å¸": 4518,
      "ĠGreen": 4519,
      "ìĹ¼": 4520,
      "ER": 4521,
      "ranch": 4522,
      "ĠWil": 4523,
      "Ġresearch": 4524,
      "ĠìĥĿíĻľ": 4525,
      "ëĥĪëĭ¤": 4526,
      "FL": 4527,
      "Ġwife": 4528,
      "uild": 4529,
      "icles": 4530,
      "Ġmodel": 4531,
      "ĠPeter": 4532,
      "½ĥ": 4533,
      "Ġget": 4534,
      "asons": 4535,
      "ìĦ¸ìĿĺ": 4536,
      "ìĪĺê°Ģ": 4537,
      "Ġ1945": 4538,
      "ĠSing": 4539,
      "Ġassoci": 4540,
      "ications": 4541,
      "ì²Ļ": 4542,
      "atory": 4543,
      "serv": 4544,
      "ror": 4545,
      "head": 4546,
      "ì·¨": 4547,
      "ĠìķĦëŀĺ": 4548,
      "utive": 4549,
      "íķ´ìķ¼": 4550,
      "ST": 4551,
      "ĠZealand": 4552,
      "ë§¥": 4553,
      "ìłķë¶Ģ": 4554,
      "Ġfund": 4555,
      "Ġseen": 4556,
      "thlet": 4557,
      "ria": 4558,
      "ĠGo": 4559,
      "ĠAcademy": 4560,
      "lor": 4561,
      "Ġê¸°ëĬ¥": 4562,
      "rig": 4563,
      "ìĭľë§Ī": 4564,
      "ĠTer": 4565,
      "ĠìĿ´ë£¨ìĸ´": 4566,
      "Film": 4567,
      "Ġoffice": 4568,
      "ĠìŀĲë£Į": 4569,
      "ĠFranc": 4570,
      "Ġphot": 4571,
      "ãĢĭ,": 4572,
      "ì¶ĺ": 4573,
      "Ġacqu": 4574,
      "New": 4575,
      ",\"": 4576,
      "Ġcirc": 4577,
      "ĠThomas": 4578,
      "Ġonce": 4579,
      "Ġêµ°ìĤ¬": 4580,
      "mpire": 4581,
      "37": 4582,
      "incip": 4583,
      "ĠIm": 4584,
      "ictor": 4585,
      "ìĽĲìĿ´": 4586,
      "ĠAfrican": 4587,
      "Ġsound": 4588,
      "ĠTor": 4589,
      "cial": 4590,
      "Ġtaken": 4591,
      "ĠHam": 4592,
      "Ġbroadcast": 4593,
      "BA": 4594,
      "ìķ¼ë§Ī": 4595,
      "Ġcost": 4596,
      "Ġ(\"": 4597,
      "ĠìķĬìĿĢ": 4598,
      "och": 4599,
      "ìĿ´ìĸ´": 4600,
      "Ġaccess": 4601,
      "Ġ1973": 4602,
      "For": 4603,
      "Ġê°ģê°ģ": 4604,
      "Ġblack": 4605,
      "Ġmatch": 4606,
      "iqu": 4607,
      "Ġforces": 4608,
      "oys": 4609,
      "ĠëĨĴìĿĢ": 4610,
      "Ġë°ĺëĮĢ": 4611,
      "unt": 4612,
      "ĠìĿ´ë¡ł": 4613,
      "Ġsignificant": 4614,
      "ìĭŃ": 4615,
      "Ġlab": 4616,
      "Ġlaun": 4617,
      "Ġìļ´íĸī": 4618,
      "ìĬ¤ë¡ľ": 4619,
      "Ġsuccessful": 4620,
      "Ġê°Ģìļ´ëį°": 4621,
      "Ġ1975": 4622,
      "ĠìĨĮìĦ¤": 4623,
      "ê³³": 4624,
      "Sc": 4625,
      "ĠMet": 4626,
      "36": 4627,
      "êµ°ìĿ´": 4628,
      "emor": 4629,
      "edy": 4630,
      "íĥģ": 4631,
      "vironment": 4632,
      "Ġë¶Ļ": 4633,
      "ought": 4634,
      "Ġoriginally": 4635,
      "rey": 4636,
      "īê¸Ģ": 4637,
      "ìķĮ": 4638,
      "Ġsigned": 4639,
      "ĠGames": 4640,
      "Ä±": 4641,
      "ìĿ´ëĵľ": 4642,
      "Ġagre": 4643,
      "Ġdebut": 4644,
      "Ġë³´ê³ł": 4645,
      "iation": 4646,
      "ĠFrank": 4647,
      "ê°ĢìĻĢ": 4648,
      "Ġì§Ħì¶ľ": 4649,
      "Ġplaying": 4650,
      "ĠìŀĲìĹ°": 4651,
      "ĠMad": 4652,
      "Ġcontrib": 4653,
      "ĠMer": 4654,
      "Ġsugg": 4655,
      "Ġìļ¸": 4656,
      "go": 4657,
      "ĠRepublic": 4658,
      "ala": 4659,
      "ëī´": 4660,
      "heast": 4661,
      "ĠÂ": 4662,
      "Ġcompanies": 4663,
      "ocr": 4664,
      "ĠíĽ": 4665,
      "1999": 4666,
      "ĠOlympics": 4667,
      "gress": 4668,
      "ĠInstitute": 4669,
      "aps": 4670,
      "ĠêµĲíĨµ": 4671,
      "êµĲìľ¡": 4672,
      "ĠUp": 4673,
      "AR": 4674,
      "vert": 4675,
      "ĠMont": 4676,
      "eep": 4677,
      "Ġreview": 4678,
      "enc": 4679,
      "Ġconstruction": 4680,
      "ê²¼": 4681,
      "arian": 4682,
      "imate": 4683,
      "Ġestablishments": 4684,
      "Ġmother": 4685,
      "Ġincludes": 4686,
      "ĠÂ·": 4687,
      "Ġì§Ģêµ¬": 4688,
      "Ġëª¨ìĬµ": 4689,
      "oviet": 4690,
      "ĠìŀĦëªħ": 4691,
      "Ġrace": 4692,
      "ì§Ģê°Ģ": 4693,
      "Ġê·¸ê°Ģ": 4694,
      "Ġë¨¹": 4695,
      "ĠBill": 4696,
      "Ġ1977": 4697,
      "ception": 4698,
      "ux": 4699,
      "ìĸ´ë¥¼": 4700,
      "Ġíģ¬ê²Į": 4701,
      "Ġstates": 4702,
      "ëĭ¤ëĬĶ": 4703,
      "Ġliter": 4704,
      "rel": 4705,
      "ìłľë¥¼": 4706,
      "íĥķ": 4707,
      "íĮħ": 4708,
      "ĠHistory": 4709,
      "Ġappointed": 4710,
      "ì§Ģê³ł": 4711,
      "ĠìĿĳ": 4712,
      "ĠTexas": 4713,
      "aves": 4714,
      "ìĩ¼": 4715,
      "Ġtour": 4716,
      "Con": 4717,
      "ĠìĿĮë°ĺ": 4718,
      "Ġattempt": 4719,
      "Ġplan": 4720,
      "Äģ": 4721,
      "ĠìĹĦ": 4722,
      "elling": 4723,
      "ĠìĦ¼": 4724,
      "Ġusually": 4725,
      "ota": 4726,
      "ĠìĮ": 4727,
      "mon": 4728,
      "ì³¤": 4729,
      "Ġaway": 4730,
      "ĠëĶ°ëĿ¼ìĦľ": 4731,
      "Ġwid": 4732,
      "ëĥĲ": 4733,
      "2012": 4734,
      "Ġê²°íĺ¼": 4735,
      "ĠìĿ´ëıĻ": 4736,
      "ĠTom": 4737,
      "uz": 4738,
      "Ġpress": 4739,
      "Ġreported": 4740,
      "Ġëĭ¤ìĸĳíķľ": 4741,
      "ĠGrand": 4742,
      "ìĦ¬": 4743,
      "ĠCD": 4744,
      "ĠPe": 4745,
      "ĠìĦľë¡ľ": 4746,
      "Ġkilled": 4747,
      "Ġmar": 4748,
      "Ġworking": 4749,
      "å¯": 4750,
      "êµ´": 4751,
      "Ġ1969": 4752,
      "Ġthroughout": 4753,
      "ĠBut": 4754,
      "ĠìłķëıĦ": 4755,
      "ducation": 4756,
      "ked": 4757,
      "ona": 4758,
      "ĠìĹŃìĭľ": 4759,
      "ĠCong": 4760,
      "ĠìķĬëĬĶ": 4761,
      "ĠìŀĳìĿĢ": 4762,
      "Ġ70": 4763,
      "ĠFIFA": 4764,
      "iding": 4765,
      "Ġtransl": 4766,
      "ë¶ĢìĹĲ": 4767,
      "Ġíıīê°Ģ": 4768,
      "Ġmonths": 4769,
      "inese": 4770,
      "Ġeither": 4771,
      "ĠëĲĺëĬĶ": 4772,
      "ìĻĶëĭ¤": 4773,
      "Ġput": 4774,
      "ĠRock": 4775,
      "ĠFrom": 4776,
      "ĠíħĶëłĪë¹ĦìłĦ": 4777,
      "ìĭ±": 4778,
      "38": 4779,
      "rim": 4780,
      "ĠRichard": 4781,
      "ios": 4782,
      "ĠFilm": 4783,
      "Ġë¹ĦíĮĲ": 4784,
      "Ġë¶Ħë¥ĺ": 4785,
      "çİĭ": 4786,
      "íĺľ": 4787,
      "ĠíĿ¬": 4788,
      "ĠìĿ´ë¦ĦìĿĦ": 4789,
      "Ġ1968": 4790,
      "rip": 4791,
      "Ġgovern": 4792,
      "Ġê°ľíĨµ": 4793,
      "ĠKore": 4794,
      "ini": 4795,
      "Ġentire": 4796,
      "ĠìķĬìķĺ": 4797,
      "ìĭľê°Ħ": 4798,
      "ì¹´ìĿ´": 4799,
      "ĠSBS": 4800,
      "Ġ1971": 4801,
      "ows": 4802,
      "Ġpark": 4803,
      "Ġcondu": 4804,
      "hi": 4805,
      "ìķ¡": 4806,
      "Ġë¸ĮëĿ¼": 4807,
      "Ġperformed": 4808,
      "Ġë¹Į": 4809,
      "ulated": 4810,
      "ìŀ¥ìľ¼ë¡ľ": 4811,
      "erous": 4812,
      "chie": 4813,
      "īê¸Ģëŀľëĵľ": 4814,
      "ump": 4815,
      "íĦ¸": 4816,
      "ĠAfrica": 4817,
      "hood": 4818,
      "ĠìĽĶëĵľì»µ": 4819,
      "ĠLeg": 4820,
      "Ġ35": 4821,
      "fic": 4822,
      "Ġìī": 4823,
      "hest": 4824,
      "Ġsports": 4825,
      "Ġê¸°íĥĢ": 4826,
      "ĠìļĶêµ¬": 4827,
      "ìłĲìĿĦ": 4828,
      "ĠMuseum": 4829,
      "ource": 4830,
      "Ġintroduced": 4831,
      "Ġ+": 4832,
      "ĠíĮĶ": 4833,
      "39": 4834,
      "ĠMel": 4835,
      "Ġfeatures": 4836,
      "Ġmix": 4837,
      "Ġmean": 4838,
      "ĠìĤ¬ìĹħ": 4839,
      "ĠDan": 4840,
      "ë·Ķ": 4841,
      "order": 4842,
      "ì§ĢìĹĲ": 4843,
      "Ġë¬ĺ": 4844,
      "Ġviol": 4845,
      "Ġtreat": 4846,
      "ĠĠĠ": 4847,
      "~)": 4848,
      "ìĬ¤ìĻĢ": 4849,
      "ĠTo": 4850,
      "ĠPet": 4851,
      "ĠíĽĦìĹĲ": 4852,
      "Ġíĭ°": 4853,
      "Wh": 4854,
      "arth": 4855,
      "ëł¬": 4856,
      "ĠìĥģíĻ©": 4857,
      "Ġeight": 4858,
      "Ġhous": 4859,
      "Ġtest": 4860,
      "ìļ´ëĵľ": 4861,
      "ĠìĹ¬ìĦ±": 4862,
      "ëį´": 4863,
      "ë£¡": 4864,
      "è¡": 4865,
      "Ġë§Ŀ": 4866,
      "Ġë°©ìĭĿ": 4867,
      "ĠScot": 4868,
      "olk": 4869,
      "Ġíį¼": 4870,
      "Ġbooks": 4871,
      "Ġconsist": 4872,
      "ĠìĹĺ": 4873,
      "utch": 4874,
      "Ġimpro": 4875,
      "ena": 4876,
      "icated": 4877,
      "ĠTown": 4878,
      "At": 4879,
      "Ġcapt": 4880,
      "anta": 4881,
      "iter": 4882,
      "ittee": 4883,
      "gy": 4884,
      "Ð°": 4885,
      "Ð¸": 4886,
      "face": 4887,
      "icago": 4888,
      "ìĸ¼": 4889,
      "ĠìĿ¼ìľ¼": 4890,
      "32": 4891,
      "Ġabove": 4892,
      "Ġì§ĢëıĦ": 4893,
      "Ġê¶ģ": 4894,
      "Ġìļ°ì£¼": 4895,
      "ëĵ¤ìĹĲ": 4896,
      "Ġê¸°ë³¸": 4897,
      "Ġfront": 4898,
      "íķĺì§Ģë§Į": 4899,
      "ĠëĤ¨ìķĦ": 4900,
      "Ġcountries": 4901,
      "ĠìŀĪëĬĶëį°": 4902,
      "FC": 4903,
      "31": 4904,
      "Ġremained": 4905,
      "Ġpolitician": 4906,
      "Ġregular": 4907,
      "ĠRh": 4908,
      "))": 4909,
      "urity": 4910,
      "Ġenc": 4911,
      "46": 4912,
      "Ġbar": 4913,
      "Ġspace": 4914,
      "ĠBC": 4915,
      "75": 4916,
      "anded": 4917,
      "Ġreb": 4918,
      "Ġhelp": 4919,
      "Ġshows": 4920,
      "ĠìĻĦìłĦ": 4921,
      "ĠëĶ°ë¥´ë©´": 4922,
      "ĠFore": 4923,
      "1998": 4924,
      "ĠSome": 4925,
      "Ġëª©ë¡Ŀ": 4926,
      "Ġfight": 4927,
      "airs": 4928,
      "Ġë¹Ħë¡¯": 4929,
      "Ġìĺ¤ìĬ¤íĬ¸": 4930,
      "íĶĦë¦¬ì¹´": 4931,
      "ĠíĺķìĦ±": 4932,
      "ĠìĹ°íķ©": 4933,
      "Ġelected": 4934,
      "Ġíĺģ": 4935,
      "éķ": 4936,
      "íıĲ": 4937,
      "Ġë°ĶìĿ´": 4938,
      "Ġcharacters": 4939,
      "Ġtre": 4940,
      "ĠRob": 4941,
      "ĠDepartment": 4942,
      "Ġrights": 4943,
      "ë¶ģëıĦ": 4944,
      "back": 4945,
      "nder": 4946,
      "Ġking": 4947,
      "Ġê±´ìĦ¤": 4948,
      "ìŀĲë¦¬": 4949,
      "Ġstudy": 4950,
      "Ġarchite": 4951,
      "Ġcour": 4952,
      "ĠëĮĢìĥģ": 4953,
      "stant": 4954,
      "íıŃ": 4955,
      "ìĩ": 4956,
      "Ġíķµ": 4957,
      "Ġser": 4958,
      "ĠëĤ®": 4959,
      "Ġreplaced": 4960,
      "ems": 4961,
      "êµ°ìĿĦ": 4962,
      "ìłķíķľ": 4963,
      "Ġëħ¹": 4964,
      "ĠìłķìĿĺ": 4965,
      "asing": 4966,
      "ìĺģíĻĶ": 4967,
      "ĠìłľìĻ¸": 4968,
      "Ġchange": 4969,
      "åº": 4970,
      "ĠSpanish": 4971,
      "ĠìĥģëĮĢ": 4972,
      "Ġarg": 4973,
      "lim": 4974,
      "ĠRussian": 4975,
      "1990": 4976,
      "cher": 4977,
      "lam": 4978,
      "road": 4979,
      "ĠìķĦëĭĮ": 4980,
      "Ġìĸ´ë¨¸ëĭĪ": 4981,
      "ĠItalian": 4982,
      "icy": 4983,
      "ĠãĢĮ": 4984,
      "å±±": 4985,
      "ĠìķĦë¥´": 4986,
      "ĠRev": 4987,
      "iff": 4988,
      "Ġ80": 4989,
      "Ľ°": 4990,
      "íģ¬ë¡ľ": 4991,
      "aching": 4992,
      "Ġperformance": 4993,
      "Ġìłķì¹ĺìĿ¸": 4994,
      "Ġeventually": 4995,
      "ĠìĨĮëł¨": 4996,
      "Ġaud": 4997,
      "Ġcivil": 4998,
      "rup": 4999,
      "ĠFin": 5000,
      "ë¥¸ëĭ¤": 5001,
      "ëłĢ": 5002,
      "Ġdou": 5003,
      "ê³Ħë¥¼": 5004,
      "ë§¨": 5005,
      "Ġrespect": 5006,
      "Ġcampaign": 5007,
      "ìŀĲìĻĢ": 5008,
      "ĠColumb": 5009,
      "ĠPlay": 5010,
      "Ġì¢ħêµĲ": 5011,
      "Ġê°ľìµľ": 5012,
      "Ġkey": 5013,
      "Ġmedal": 5014,
      "Ġbasketball": 5015,
      "ê³¼íķĻ": 5016,
      "ç¾": 5017,
      "atives": 5018,
      "íĶĦë¡ľ": 5019,
      "SI": 5020,
      "Ġdam": 5021,
      "ĠëıĻìĭľìĹĲ": 5022,
      "AT": 5023,
      "Ġfoc": 5024,
      "Ġvocals": 5025,
      "Ġfeatured": 5026,
      "Ġëª¸": 5027,
      "Ġaver": 5028,
      "ìĹĨ": 5029,
      "ì¼ĵ": 5030,
      "Ġ1967": 5031,
      "Ġrange": 5032,
      "Ġill": 5033,
      "rael": 5034,
      "ĠWhite": 5035,
      "ìĿ¸ìĿĢ": 5036,
      "Ġ2023": 5037,
      "ìĿ´ìĿĺ": 5038,
      "ĠëıĦìŀħ": 5039,
      "Ġmount": 5040,
      "mb": 5041,
      "Ġdesigned": 5042,
      "Ġhit": 5043,
      "fficial": 5044,
      "ê²Ģ": 5045,
      "Ġê¸°ê´Ģ": 5046,
      "ĠLove": 5047,
      "ĠCarol": 5048,
      "ĠForce": 5049,
      "ites": 5050,
      "ĠMus": 5051,
      "ĠLake": 5052,
      "ĠLos": 5053,
      "ĠVirgin": 5054,
      "Ġê²¸": 5055,
      "ìľĦìĹĲ": 5056,
      "ìŀĦìĿĦ": 5057,
      "ĠìĿ¸ëıĦ": 5058,
      ");": 5059,
      "188": 5060,
      "Ġpast": 5061,
      "ving": 5062,
      "ĠBur": 5063,
      "ometimes": 5064,
      "49": 5065,
      "Ġëª¨ëį¸": 5066,
      "uated": 5067,
      "stitution": 5068,
      "ë¦°ëĭ¤": 5069,
      "Ġparts": 5070,
      "Ġseven": 5071,
      "gen": 5072,
      "Ġleading": 5073,
      "ĠíıĲì§Ģ": 5074,
      "idents": 5075,
      "Ġíķľíİ¸": 5076,
      "íĳ¸": 5077,
      "ibrary": 5078,
      "Ġalumni": 5079,
      "ĠíķĻìĥĿ": 5080,
      "Ġìłķì±ħ": 5081,
      "Ġcourt": 5082,
      "ĠSmith": 5083,
      "ìłľê°Ģ": 5084,
      "Ġleast": 5085,
      "íĬ¸ë¡ľ": 5086,
      "ìĬ¤ì½Ķ": 5087,
      "Ġupon": 5088,
      "ì½ľ": 5089,
      "Ġê±°ì£¼": 5090,
      "Ġgave": 5091,
      "Ġgold": 5092,
      "ìĤ¬íļĮ": 5093,
      "arily": 5094,
      "aught": 5095,
      "Ġinj": 5096,
      "ĠKn": 5097,
      "Ġê³¼íķĻ": 5098,
      "ĠìĿ´ëķĮ": 5099,
      "ĠSqu": 5100,
      "íħĲ": 5101,
      "å¹": 5102,
      "eck": 5103,
      "cient": 5104,
      "stra": 5105,
      "2013": 5106,
      "Ġdaughter": 5107,
      "íĹĪ": 5108,
      "ĠëĤĺìĺ¤": 5109,
      "ë¶Ģë¥¼": 5110,
      "Ġê·¸ê²ĥ": 5111,
      "ĠSun": 5112,
      "Ġmethod": 5113,
      "ìŀ¥ìĿĢ": 5114,
      "ĠMinister": 5115,
      "ada": 5116,
      "ìĪĺëĬĶ": 5117,
      "ĠDo": 5118,
      "ĠSecond": 5119,
      "Ġsubsequ": 5120,
      "Ð¾": 5121,
      "Ġprot": 5122,
      "icro": 5123,
      "íķĺìĺĢìľ¼ëĤĺ": 5124,
      "ìłĦìĹĲ": 5125,
      "ĠĊĠĊĠĊĠĊ": 5126,
      "ĠHill": 5127,
      "íħĶ": 5128,
      "Ġdirected": 5129,
      "Ġmass": 5130,
      "Ġì§Ģê¸Ī": 5131,
      "Ġì¤ĳìļĶíķľ": 5132,
      "Ġactress": 5133,
      "ands": 5134,
      "Ġìĭ¤ìĭľ": 5135,
      "ĠRegulations": 5136,
      "ĠíĽĪ": 5137,
      "medi": 5138,
      "Ġì§Ģìłķ": 5139,
      "AC": 5140,
      "str": 5141,
      "ply": 5142,
      "ë¬¸ìĿĦ": 5143,
      "ëĮĢìĹĲ": 5144,
      "íĨ¤": 5145,
      "Ġexpress": 5146,
      "ĠVictor": 5147,
      "Ġaircraft": 5148,
      "æĹ": 5149,
      "ë¦¬ì§Ģ": 5150,
      "Ġable": 5151,
      "aged": 5152,
      "Ġsil": 5153,
      "rought": 5154,
      "ĠClass": 5155,
      "ĠìĿĺíķľ": 5156,
      "Ġì»´íĵ¨íĦ°": 5157,
      "ĠìĦ±ìļ°": 5158,
      "Ġë¿Ĳ": 5159,
      "Ġsem": 5160,
      "ê²½ê¸°": 5161,
      "ĠMur": 5162,
      "ëĤĺëĭ¤": 5163,
      "ì½ĺ": 5164,
      "ĠPenn": 5165,
      "ìĿ¼ë³¸ìĿĺ": 5166,
      "Ġdiscover": 5167,
      "oid": 5168,
      "',": 5169,
      "1997": 5170,
      "ĠHenry": 5171,
      "ìĿ¸ìĿĦ": 5172,
      "atal": 5173,
      "Ġsubject": 5174,
      "Ġìĸ´ëĸ¤": 5175,
      "ooks": 5176,
      "Ġstage": 5177,
      "34": 5178,
      "Ġìĥī": 5179,
      "ìĿ´ìĹĪëįĺ": 5180,
      "Ġcommer": 5181,
      "99": 5182,
      "uture": 5183,
      "ola": 5184,
      "ìĬ¤íĤ¤": 5185,
      "rial": 5186,
      "ufact": 5187,
      "Ġíľ´": 5188,
      "Ġë§Įëĵł": 5189,
      "sel": 5190,
      "ĠFlor": 5191,
      "ospital": 5192,
      "Ġtraining": 5193,
      "Ġê´Ģë¦¬": 5194,
      "chan": 5195,
      "kn": 5196,
      "ĠëĲĺìĹĪ": 5197,
      "Ġíĩ´": 5198,
      "ĠGreek": 5199,
      "ê´ĳìĹŃìĭľ": 5200,
      "Ġsch": 5201,
      "ķħ": 5202,
      "ì¹ĺëĬĶ": 5203,
      "íĸĪìľ¼ëĤĺ": 5204,
      "ĠOther": 5205,
      "Ġpur": 5206,
      "íĸĪì§Ģë§Į": 5207,
      "Ġfunction": 5208,
      "ĠSuper": 5209,
      "asc": 5210,
      "Ġëªħì¹Ń": 5211,
      "Ġsinger": 5212,
      "Ġsystems": 5213,
      "Ġ1966": 5214,
      "ĠNorthern": 5215,
      "ë²½": 5216,
      "ste": 5217,
      "ĠêµŃíļĮìĿĺ": 5218,
      "íİĺìĿ´ì§Ģ": 5219,
      "Ġcy": 5220,
      "ëĭĿ": 5221,
      "ship": 5222,
      "Ġ1964": 5223,
      "ìĦ¸ëĬĶ": 5224,
      "Ġrespons": 5225,
      "ë¬¼ìĿĦ": 5226,
      "55": 5227,
      "Ġìĭ¸": 5228,
      "ìĿ´ë¥¼": 5229,
      "íı¬ì¸ł": 5230,
      "Ġê¼": 5231,
      "pecially": 5232,
      "Ġcop": 5233,
      "Ġjud": 5234,
      "Ġ1940": 5235,
      "ì¹ĺë¥¼": 5236,
      "left": 5237,
      "yr": 5238,
      "ĠíĽĦë³´": 5239,
      "itt": 5240,
      "ĠìĪĺë¡Ŀ": 5241,
      "ê³¤": 5242,
      "bl": 5243,
      "Ġmultip": 5244,
      "EFA": 5245,
      "Ġrank": 5246,
      "ìŀ¥ìĿĺ": 5247,
      "Ġê¸°ê°Ħ": 5248,
      "ĠBen": 5249,
      "ĠStar": 5250,
      "Ã¤": 5251,
      "Ġì¤ĳíĻĶ": 5252,
      "Ġfig": 5253,
      "Ġclose": 5254,
      "sec": 5255,
      "Ġfrequ": 5256,
      "Ġhom": 5257,
      "Ġë³´ìĹ¬": 5258,
      "ìĽ¨ìĸ´": 5259,
      "Ġì§Ģíķĺ": 5260,
      "uments": 5261,
      "ani": 5262,
      "ny": 5263,
      "ĠEmpire": 5264,
      "embly": 5265,
      "ero": 5266,
      "ises": 5267,
      "ĠChicago": 5268,
      "anks": 5269,
      "ĠìĿ´ë¥´": 5270,
      "Ġprovided": 5271,
      "ìĨĮë¥¼": 5272,
      "ëģ¼": 5273,
      "ìĦ±ìĿĢ": 5274,
      "ĠCons": 5275,
      "Ġoccur": 5276,
      "ë²¤": 5277,
      "Ġbuildings": 5278,
      "ĠìĽ¹": 5279,
      "Ġê²¬": 5280,
      "2014": 5281,
      "Ġinvolved": 5282,
      "Ġê±´ì¶ķ": 5283,
      "Ġprivate": 5284,
      "ersey": 5285,
      "Ġtype": 5286,
      "íģĲ": 5287,
      "Ġrather": 5288,
      "ĠSoviet": 5289,
      "Ġê·¸ëŀĺ": 5290,
      "Ġadded": 5291,
      "ado": 5292,
      "ĠMass": 5293,
      "comp": 5294,
      "ĠCamp": 5295,
      "Ġë³´íĨµ": 5296,
      "ĠìĽĮ": 5297,
      "Ġboard": 5298,
      "ires": 5299,
      "ĠìķĮëł¤ìł¸": 5300,
      "etic": 5301,
      "ples": 5302,
      "Ġpot": 5303,
      "ìĽĲìĿĢ": 5304,
      "Ġpain": 5305,
      "Ġtrib": 5306,
      "aval": 5307,
      "arts": 5308,
      "æĪ": 5309,
      "ëŀĻ": 5310,
      "Ġì´Īê¸°": 5311,
      "ension": 5312,
      "Ġcenter": 5313,
      "Ġëį°ë·Ķ": 5314,
      "ì²´ìĿĺ": 5315,
      "ww": 5316,
      "ros": 5317,
      "1996": 5318,
      "Ġwinn": 5319,
      "Ġëħ¸ëıĻ": 5320,
      "Ġ1930": 5321,
      "ĠHistor": 5322,
      "ĠëĤĺë": 5323,
      "Ġwhite": 5324,
      "Ġ1963": 5325,
      "ç¥": 5326,
      "ao": 5327,
      "ĠChinese": 5328,
      "Ġsurv": 5329,
      "íĺ¸ë¥¼": 5330,
      "Ad": 5331,
      "êµĲíļĮ": 5332,
      "ĠMod": 5333,
      "Ġê¸°ëıħêµĲ": 5334,
      "ìĿ¸ë¯¼ê³µíĻĶêµŃ": 5335,
      "Ġhard": 5336,
      "ask": 5337,
      "Ġdata": 5338,
      "ugby": 5339,
      "Te": 5340,
      "ìĤ¬ìĹĲ": 5341,
      "06": 5342,
      "ĠBrown": 5343,
      "Ġhealth": 5344,
      "ĠíķĺìĺĢ": 5345,
      "44": 5346,
      "ëĤĺë¬´": 5347,
      "SBS": 5348,
      "oper": 5349,
      "ìĥ¤": 5350,
      "ĠWhile": 5351,
      "RA": 5352,
      "Ġpred": 5353,
      "Ġ1965": 5354,
      "´Ħ": 5355,
      "There": 5356,
      "Ġë§Ĳíķľëĭ¤": 5357,
      "ĠíĨµíķ©": 5358,
      "Ġë®¤": 5359,
      "ĠëĨĵ": 5360,
      "ë¯¸êµŃìĿĺ": 5361,
      "ĠíĶĮëłĪìĿ´": 5362,
      "ĠìłĦêµŃ": 5363,
      "ëĵľëĿ¼ë§Ī": 5364,
      "ĠAngeles": 5365,
      "ĠGra": 5366,
      "Ġvia": 5367,
      "het": 5368,
      "Ġlower": 5369,
      "Ġê°Ģë¦¬": 5370,
      "ëĶ©": 5371,
      "ĠìŀĪìĿĦ": 5372,
      "Ġê³µìĹ°": 5373,
      "íĿĲ": 5374,
      "Ġìµľì´ĪìĿĺ": 5375,
      "Ġê¸´": 5376,
      "Ġpossible": 5377,
      "ĠJust": 5378,
      "ë¦ī": 5379,
      "Ġimm": 5380,
      "Ġì°©": 5381,
      "Ġdestro": 5382,
      "Ġìŀĳê°Ģ": 5383,
      "ì²łëıĦ": 5384,
      "arter": 5385,
      "ìĽĲìľ¼ë¡ľ": 5386,
      "Ġinstead": 5387,
      "Ġcentral": 5388,
      "Ġsaw": 5389,
      "æ´": 5390,
      "Ġapprox": 5391,
      "Ġcollege": 5392,
      "Ġfav": 5393,
      "Ġì§Ģë°°": 5394,
      "ender": 5395,
      "erve": 5396,
      "ĠArab": 5397,
      "Ġsection": 5398,
      "ĠIII": 5399,
      "ĠëĬĲ": 5400,
      "ë¹ĦìĬ¤": 5401,
      "Ġforce": 5402,
      "ëĮĢíķľë¯¼êµŃ": 5403,
      "Ġneigh": 5404,
      "ìĬ·": 5405,
      "ëłĪìĬ¤": 5406,
      "Ġê¸°ì¡´": 5407,
      "Ġtransfer": 5408,
      "Ġì§Ģíľĺ": 5409,
      "Ġ1962": 5410,
      "Ġlearn": 5411,
      "porary": 5412,
      "ĠAnn": 5413,
      "Ġobject": 5414,
      "ye": 5415,
      "oz": 5416,
      "Ġmeas": 5417,
      "Ġìĥ¤": 5418,
      "01": 5419,
      "ë¹Į": 5420,
      ")Â·": 5421,
      "English": 5422,
      "iences": 5423,
      "ĠAtl": 5424,
      "ëĲĺë©´ìĦľ": 5425,
      "action": 5426,
      "ental": 5427,
      "Ġì£¼ë³Ģ": 5428,
      "ĠëłĪìĿ´": 5429,
      "ĠSir": 5430,
      "05": 5431,
      "Ġë¹Ī": 5432,
      "ĠëĽ°": 5433,
      "ingu": 5434,
      "ĠService": 5435,
      "ĠParis": 5436,
      "ë¬ĺ": 5437,
      "Ġjournal": 5438,
      "Early": 5439,
      "76": 5440,
      "Ġknow": 5441,
      "Ġaccount": 5442,
      "ê°Ķëĭ¤": 5443,
      "Ġactor": 5444,
      "ĠìĤ¬ìĿ´ìĹĲ": 5445,
      "Ġterrit": 5446,
      "ê°ĳ": 5447,
      "Ġìĵ": 5448,
      "Ġche": 5449,
      "Ġfinished": 5450,
      "ĠíĥĲ": 5451,
      "Ġìĺ®": 5452,
      "ends": 5453,
      "Ġnight": 5454,
      "Åį": 5455,
      "ĠìĿ¸ê°Ħ": 5456,
      "ĠOld": 5457,
      "Ġíĺ¹ìĿĢ": 5458,
      "ĠìĤ¬ìĥģ": 5459,
      "ength": 5460,
      "like": 5461,
      "ë¦¬íķĻ": 5462,
      "ìŀ¥ìĹĲ": 5463,
      "åĪ": 5464,
      "íĹ¤": 5465,
      "Ġbirth": 5466,
      "List": 5467,
      "Ġëĭ¤ìĿ´": 5468,
      "Ġaction": 5469,
      "Ġíĳ¸": 5470,
      "ë§Īëĭ¤": 5471,
      "ĠJun": 5472,
      "Ġ500": 5473,
      "Ġrailway": 5474,
      "oral": 5475,
      "ĠëĿ¼ëĶĶìĺ¤": 5476,
      "Ġìĭ±ê¸Ģ": 5477,
      "bur": 5478,
      "ìĸ´ëĬĶ": 5479,
      "Ġcritic": 5480,
      "ĠëĮĢêµ¬": 5481,
      "ë¯¼ì£¼ì£¼ìĿĺ": 5482,
      "Ġculture": 5483,
      "1995": 5484,
      "well": 5485,
      "ĠKh": 5486,
      "Ġtravel": 5487,
      "ìķ½ìĿĦ": 5488,
      "Ġsex": 5489,
      "eated": 5490,
      "08": 5491,
      "Ġflow": 5492,
      "Ġachie": 5493,
      "Ġwriter": 5494,
      "Ġalmost": 5495,
      "Ġinterest": 5496,
      "clus": 5497,
      "Ġprovide": 5498,
      "ĠGeorg": 5499,
      "Ġ32": 5500,
      "Ġawarded": 5501,
      "Ġplaced": 5502,
      "Ġfar": 5503,
      "ìķĦìŀĪëĬĶ": 5504,
      "mm": 5505,
      "ĠBow": 5506,
      "íĻĶê°Ģ": 5507,
      "íĬ¹ë³Ħìĭľ": 5508,
      "Ind": 5509,
      "aying": 5510,
      "This": 5511,
      "ìĿ¼ìĿĺ": 5512,
      "Ġë§¥": 5513,
      "Ġchampionship": 5514,
      "Ġcapital": 5515,
      "ê¸°ê´Ģ": 5516,
      "09": 5517,
      "ĠIts": 5518,
      "bon": 5519,
      "ëĮĢê°Ģ": 5520,
      "ì¤ĳìĹĲ": 5521,
      "ection": 5522,
      "07": 5523,
      "ê²©ìĿĦ": 5524,
      "endment": 5525,
      "ita": 5526,
      "ĠDel": 5527,
      "Ġopt": 5528,
      "Ġartists": 5529,
      "Ġitself": 5530,
      "ura": 5531,
      "Ġëĭ¬ë¦¬": 5532,
      "´ëĵľ": 5533,
      "ĠëıĦë¡ľ": 5534,
      "Ġê°Ģì§Ħ": 5535,
      "ĠìĤ°ìĹħ": 5536,
      "ĠCast": 5537,
      "Ġë¹ĦìĬ·": 5538,
      "Ġplaces": 5539,
      "Ġíĥľìĸĳ": 5540,
      "65": 5541,
      "akistan": 5542,
      "Ġdram": 5543,
      "Ġê²½ìĥģ": 5544,
      "uke": 5545,
      "ĠìľĦìĽĲ": 5546,
      "Ġoccup": 5547,
      "istics": 5548,
      "ìłĦìĹĲìĦľ": 5549,
      "Ġìĺ¥": 5550,
      "ĠAccording": 5551,
      "min": 5552,
      "ĠMil": 5553,
      "eleb": 5554,
      "based": 5555,
      "Ġriver": 5556,
      "ìª½ìľ¼ë¡ľ": 5557,
      "Ġmedia": 5558,
      "board": 5559,
      "ëĺĲ": 5560,
      "Ġtourn": 5561,
      "Ġë³´ëĤ´": 5562,
      "ĠÎ": 5563,
      "Ġbrought": 5564,
      "Ġë°Ķë¡ľ": 5565,
      "ounter": 5566,
      "Ġaccept": 5567,
      "Ġnetwork": 5568,
      "Ġwhose": 5569,
      "ê³¼ëĬĶ": 5570,
      "earch": 5571,
      "2015": 5572,
      "ĠìĦ¤ëªħ": 5573,
      "Ġmunicipality": 5574,
      "change": 5575,
      "Ġstre": 5576,
      "ĠSaint": 5577,
      "Ġstruct": 5578,
      "Ġdistrib": 5579,
      "ìĿ¼ë¶ĢíĦ°": 5580,
      "Ġê²½ì°°": 5581,
      "Ġfall": 5582,
      "ìĥĿìķł": 5583,
      "ĠëĦĪ": 5584,
      "Ġprison": 5585,
      "Ġê°ľìĭľ": 5586,
      "ams": 5587,
      "Ġê°ľìĿĺ": 5588,
      "Ġwriters": 5589,
      "Ġresults": 5590,
      "Ġlik": 5591,
      "inary": 5592,
      "Ġmanager": 5593,
      "Ph": 5594,
      "ìĪĺë¡ľ": 5595,
      "ĠCarl": 5596,
      "ĠOper": 5597,
      "Ġê¸°ìĽĲìłĦ": 5598,
      "reme": 5599,
      "Ġveh": 5600,
      "eds": 5601,
      "Ġpers": 5602,
      "Ġìľ¡êµ°": 5603,
      "Ġregard": 5604,
      "Ġisland": 5605,
      "teg": 5606,
      "95": 5607,
      "ì¹ł": 5608,
      "Ġprincip": 5609,
      "ìłľìĿĺ": 5610,
      "Ġ1920": 5611,
      "Ġmeans": 5612,
      "Ġplann": 5613,
      "Ġbattle": 5614,
      "ĠêµŃê°ĢëĮĢíĳľ": 5615,
      "ĠìľĪ": 5616,
      "Ġ1948": 5617,
      "Ġchanged": 5618,
      "Ġë¬¸íĹĮ": 5619,
      "Ġcoast": 5620,
      "Ġdocument": 5621,
      "ìĦľë¥¼": 5622,
      "Ġi": 5623,
      "Ġoutside": 5624,
      "text": 5625,
      "Ġcal": 5626,
      "ĠìĹŃíķłìĿĦ": 5627,
      "abit": 5628,
      "ĠìłĦíĨµ": 5629,
      "ulture": 5630,
      "Ge": 5631,
      "ìĭľì¼°ëĭ¤": 5632,
      "42": 5633,
      "ìĿ¸ë¬¼": 5634,
      "ĠItaly": 5635,
      "íĨ¨ë¦Ń": 5636,
      "known": 5637,
      "ëĨį": 5638,
      "Ġespecially": 5639,
      "uns": 5640,
      "åŁ": 5641,
      "center": 5642,
      "ription": 5643,
      "isions": 5644,
      "Ġcurrently": 5645,
      "ĠìĪĻ": 5646,
      "Ġtax": 5647,
      "41": 5648,
      "Ġloss": 5649,
      "ette": 5650,
      "Ġrelationship": 5651,
      "Ġreached": 5652,
      "æ³": 5653,
      "ĠSwed": 5654,
      "ĠFre": 5655,
      "sych": 5656,
      "ĠìĻķì¡°": 5657,
      "ëª½": 5658,
      "Ġíķĺë©°": 5659,
      "ĠëķĮë¬¸ìĿ´ëĭ¤": 5660,
      "ylvan": 5661,
      "ĠTechn": 5662,
      "Ġnatural": 5663,
      "ëĿ¼ëıĦ": 5664,
      "Ġmovement": 5665,
      "Ġobserv": 5666,
      "ĠJersey": 5667,
      "ĠìĦłìłķ": 5668,
      "antic": 5669,
      "Ġnewsp": 5670,
      "ĠíĻĪíİĺìĿ´ì§Ģ": 5671,
      "ĠEr": 5672,
      "ky": 5673,
      "ils": 5674,
      "ĠDen": 5675,
      "78": 5676,
      "ëĭ¹ìĿĺ": 5677,
      "ìĤ¬ìĻĢ": 5678,
      "Ġsouthern": 5679,
      "Ġphil": 5680,
      "ĠEv": 5681,
      "íļĮë¥¼": 5682,
      "ìŀĪëĭ¤": 5683,
      "Ġunits": 5684,
      "Ġëĸ¨ìĸ´": 5685,
      "Ġcut": 5686,
      "ĠDirect": 5687,
      "íĬ¸ìĿĺ": 5688,
      "Ġroute": 5689,
      "SP": 5690,
      "Ġì²ĺìĿĮìľ¼ë¡ľ": 5691,
      "ĠìĭľìŀĳíĸĪëĭ¤": 5692,
      "Ġdecided": 5693,
      "ĠScience": 5694,
      "Ġnorthern": 5695,
      "Ġpolice": 5696,
      "Ġclosed": 5697,
      "Ġê¸°ë°ĺ": 5698,
      "ëĮĢëĬĶ": 5699,
      "ĠëªħìĿĺ": 5700,
      "uan": 5701,
      "ĠìłĦë¬¸": 5702,
      "za": 5703,
      "ĠìĹ°ìĨį": 5704,
      "ĠBattle": 5705,
      "iety": 5706,
      "with": 5707,
      "ĠìĹ°ë°©": 5708,
      "Ġneg": 5709,
      "ĠParliament": 5710,
      "ĠTro": 5711,
      "lier": 5712,
      "zil": 5713,
      "ë¶ĢëĬĶ": 5714,
      "Ġë¶Ģë¥´": 5715,
      "íĶĦëŀĳ": 5716,
      "ĠCommission": 5717,
      "Ġbank": 5718,
      "Ġwind": 5719,
      "Ġstaff": 5720,
      "ĠIll": 5721,
      "Ġë°Ķê": 5722,
      "Ġallowed": 5723,
      "Ġsuper": 5724,
      "During": 5725,
      "ĠĊĊĠ": 5726,
      "IA": 5727,
      "ì²´ë¥¼": 5728,
      "Ġvir": 5729,
      "Ġstructure": 5730,
      "ĠíĬ¹ì§ķ": 5731,
      "asion": 5732,
      "ĠìŀĪëĭ¤ê³ł": 5733,
      "ëĳ¥": 5734,
      "Ġdeal": 5735,
      "ĠSummer": 5736,
      "Ġ1961": 5737,
      "Ġê·¸ë¥¼": 5738,
      "Ġgoal": 5739,
      "Ġproducer": 5740,
      "Ġaverage": 5741,
      "Ġì¹¸": 5742,
      "íı°": 5743,
      "ĠìĬ¬": 5744,
      "Ġsometimes": 5745,
      "Ġcertain": 5746,
      "EC": 5747,
      "ĠMexico": 5748,
      "ano": 5749,
      "43": 5750,
      "Ġìĭ¤íĮ¨": 5751,
      "íĤ¬": 5752,
      "ĠIsrael": 5753,
      "ĠMr": 5754,
      "enced": 5755,
      "ĠFlorida": 5756,
      "åĮ": 5757,
      "ĠMill": 5758,
      "Ġcred": 5759,
      "Ġstandard": 5760,
      "Ġstated": 5761,
      "ĠíĮĲë§¤": 5762,
      "Ġê°ľìĿ¸": 5763,
      "ĠTwo": 5764,
      "ì¦ĺ": 5765,
      "êµĲíĨµ": 5766,
      "ìłģìĿĦ": 5767,
      "igan": 5768,
      "500": 5769,
      "Ġconv": 5770,
      "ĠìĿ¸ì²ľ": 5771,
      "Ġminor": 5772,
      "Ġge": 5773,
      "Ġcreat": 5774,
      "Ġpurch": 5775,
      "alled": 5776,
      "ultural": 5777,
      "ĠPublic": 5778,
      "Ġcomplex": 5779,
      "mond": 5780,
      "position": 5781,
      "Ġëª½": 5782,
      "Ġcompetition": 5783,
      "Ġden": 5784,
      "ients": 5785,
      "Ġì¤ĳìĭ¬ìľ¼ë¡ľ": 5786,
      "ìĿĺë¥¼": 5787,
      "ĠìĻ¸êµŃ": 5788,
      "ì£¼ëĬĶ": 5789,
      "Ġmanufact": 5790,
      "vention": 5791,
      "ìĸ´ê°Ģ": 5792,
      "Ġê¸°ëħĲ": 5793,
      "Ġmur": 5794,
      "Ġgenerally": 5795,
      "Ġmusical": 5796,
      "Ġfootballer": 5797,
      "ĠSeries": 5798,
      "Ġì°¨ëŁī": 5799,
      "1980": 5800,
      "Ġê²½ê¸°ëıĦ": 5801,
      "Ġì½ľ": 5802,
      "ëŁ¬ëĤĺ": 5803,
      "osaur": 5804,
      "elled": 5805,
      "Bl": 5806,
      "gl": 5807,
      "Ġì°¾ìķĦ": 5808,
      "ì²´ê°Ģ": 5809,
      "Ġuses": 5810,
      "1994": 5811,
      "ìĦłìĿĦ": 5812,
      "ì§ĢìĹŃ": 5813,
      "erry": 5814,
      "Ġoperations": 5815,
      "ëĭ¨ìĿĺ": 5816,
      "ĠJim": 5817,
      "¶¤": 5818,
      "Ġbase": 5819,
      "ĠWales": 5820,
      "ĠLife": 5821,
      "ĠOff": 5822,
      "ĠíĶ¼íķ´": 5823,
      "Ġruns": 5824,
      "Ĳë¦¬": 5825,
      "oma": 5826,
      "ift": 5827,
      "Ġscient": 5828,
      "Ġdeterm": 5829,
      "éĿ": 5830,
      "orpor": 5831,
      "ĠRou": 5832,
      "æ²": 5833,
      "ì¢ħìĿĺ": 5834,
      "ĠMin": 5835,
      "Ġesc": 5836,
      "íĺĦìŀ¬": 5837,
      "Ġ1944": 5838,
      "org": 5839,
      "2016": 5840,
      "Ġcou": 5841,
      "ato": 5842,
      "ta": 5843,
      "Notes": 5844,
      "Ġword": 5845,
      "Ġì§ĢëĤĺ": 5846,
      "Ġschol": 5847,
      "Ġthus": 5848,
      "anguages": 5849,
      "aters": 5850,
      "02": 5851,
      "Ġsen": 5852,
      "ëįľ": 5853,
      "ĠDi": 5854,
      "éģĵ": 5855,
      "ìĦ¸ê°Ģ": 5856,
      "col": 5857,
      "ĠEducation": 5858,
      "ì¹´ìĻĢ": 5859,
      "amily": 5860,
      "ĠSystem": 5861,
      "ĠêµŃëĤ´": 5862,
      "Ġlo": 5863,
      "ollowing": 5864,
      "ĠPan": 5865,
      "aled": 5866,
      "Ġplant": 5867,
      "den": 5868,
      "lying": 5869,
      "ìĤ´ìķĦìŀĪëĬĶ": 5870,
      "Ġê³łëĵ±íķĻêµĲ": 5871,
      "Ġhigher": 5872,
      "Ġì¦Ŀê°Ģ": 5873,
      "íķĺê±°ëĤĺ": 5874,
      "ĠGovernment": 5875,
      "rang": 5876,
      "VD": 5877,
      "Ġìĸ´ë¦°": 5878,
      ")\"": 5879,
      "ĠBook": 5880,
      "OS": 5881,
      "ĠÐ": 5882,
      "ĠëĤĻ": 5883,
      "Ġê°Ģê¹Į": 5884,
      "ĠëĲĺê³ł": 5885,
      "Ġaccording": 5886,
      "Ġë°©íĸ¥": 5887,
      "ĠCamb": 5888,
      "Ġeffort": 5889,
      "ĠìĪĺíĸī": 5890,
      "ĠìľĦì¹ĺíķľ": 5891,
      "ĠOl": 5892,
      "Ġì¢ħë¥ĺ": 5893,
      "Ġë²¨": 5894,
      "Ġleader": 5895,
      "Ġê³µê°ľ": 5896,
      "ecess": 5897,
      "Ġscience": 5898,
      "Ġindependent": 5899,
      "not": 5900,
      "Ġ38": 5901,
      "ìľ¼ë©´": 5902,
      "ìĿ´ê¸°ëıĦ": 5903,
      "wer": 5904,
      "bit": 5905,
      "ĠíĻĺê²½": 5906,
      "ĠìĽĲëŀĺ": 5907,
      "ëłµ": 5908,
      "ĠOut": 5909,
      "Ġë¨¼": 5910,
      "ĠìĨĮíĶĦíĬ¸": 5911,
      "itiz": 5912,
      "Ġ36": 5913,
      "ĠëĲł": 5914,
      "ëıĦìĹĲ": 5915,
      "ë¡¤": 5916,
      "ìĨįëıĦë¡ľ": 5917,
      "Ġ45": 5918,
      "ittle": 5919,
      "ĠJoseph": 5920,
      "Ġqual": 5921,
      "ëĲĺë©°": 5922,
      "Ġpreviously": 5923,
      "ca": 5924,
      "ua": 5925,
      "Ġreading": 5926,
      "ĠHow": 5927,
      "ĠMartin": 5928,
      "Ġprimary": 5929,
      "ĠArts": 5930,
      "ylvania": 5931,
      "MA": 5932,
      "03": 5933,
      "ëĵľë¡ľ": 5934,
      "Ġbehind": 5935,
      "77": 5936,
      "98": 5937,
      "Ġê³§": 5938,
      "Ġindustry": 5939,
      "Ġever": 5940,
      "ĠLand": 5941,
      "ĠCongress": 5942,
      "Ġíĳľì¤Ģ": 5943,
      "ĠìľĦíķĺìĹ¬": 5944,
      "¤ë²Ħ": 5945,
      "hold": 5946,
      "oke": 5947,
      "ady": 5948,
      "ĠTimes": 5949,
      "Ġfourth": 5950,
      "ìºĲ": 5951,
      "Ġhor": 5952,
      "Ġtraditional": 5953,
      "Ġì²ľíĻ©": 5954,
      "ki": 5955,
      "ulf": 5956,
      "Ġfood": 5957,
      "Ġë°ĸ": 5958,
      "ĠMa": 5959,
      "ë¡Ń": 5960,
      "ĠIrish": 5961,
      "Ġedition": 5962,
      "Ã§": 5963,
      "Ġbass": 5964,
      "ned": 5965,
      "band": 5966,
      "Ġreve": 5967,
      "ĠìĹĨìĿ´": 5968,
      "Ġsoft": 5969,
      "íĬ¸ë¥¼": 5970,
      "ìĸ´ìĿĺ": 5971,
      "ĠìĹ´ë¦°": 5972,
      "ëĲĲëĭ¤": 5973,
      "Ġë¹ĦêµĲ": 5974,
      "Ġcommercial": 5975,
      "ìłķìĿĺ": 5976,
      "Ġbur": 5977,
      "ëħ¼": 5978,
      "Ġlet": 5979,
      "ĠDis": 5980,
      "æĽ": 5981,
      "ìĤ¬ê±´": 5982,
      "ĠìĿ´ëģĮ": 5983,
      "itted": 5984,
      "100": 5985,
      "Ġsus": 5986,
      "ë¦¬ìĻĢ": 5987,
      "ulty": 5988,
      "Ġfemale": 5989,
      "Ġêµ¬ìĹŃ": 5990,
      "Ġself": 5991,
      "Ġremov": 5992,
      "é«": 5993,
      "Ġrequired": 5994,
      "ĠSpec": 5995,
      "Ġball": 5996,
      "ì¹¼": 5997,
      "Ġfarm": 5998,
      "//": 5999,
      "ĠìĹ¼": 6000,
      "Ġê³µê°Ħ": 6001,
      "Ġwinning": 6002,
      "ĠBig": 6003,
      "Ġabs": 6004,
      "Ġbeginning": 6005,
      "ibility": 6006,
      "Ġstop": 6007,
      "ĠFort": 6008,
      "Ġrelated": 6009,
      "Ġê±´ë¬¼": 6010,
      "Ġsettle": 6011,
      "ĠëĤĺê°Ģ": 6012,
      "ĠNews": 6013,
      "Ġëĭ´ëĭ¹": 6014,
      "Ġtowards": 6015,
      "Ġìĥģëĭ¹": 6016,
      "Ġtext": 6017,
      "íķĢ": 6018,
      "Ġdestroy": 6019,
      "ìŀ¥ìĹĲìĦľ": 6020,
      "ĠPre": 6021,
      "04": 6022,
      "ë¦¬ë¡ľ": 6023,
      "Ġtransport": 6024,
      "Ġdefeated": 6025,
      "ĠëĦĵ": 6026,
      "ĠRadio": 6027,
      "Ġë°ĽìĿĢ": 6028,
      "ĠWood": 6029,
      "ìĽħ": 6030,
      "ëħĦìĿĺ": 6031,
      "ĠSil": 6032,
      "Other": 6033,
      "ĠAlthough": 6034,
      "Ġquest": 6035,
      "ĠCur": 6036,
      "ĠBritain": 6037,
      "ä½": 6038,
      "ĠìĹĲëĦĪ": 6039,
      "Ġtoo": 6040,
      "ëıĻìĿĦ": 6041,
      "bers": 6042,
      "Ġarmy": 6043,
      "ĠInc": 6044,
      "Ġadop": 6045,
      "illa": 6046,
      "ëª¨íĨł": 6047,
      "Ġste": 6048,
      "igital": 6049,
      "hire": 6050,
      "íķĺëĬĶëį°": 6051,
      "ĠPakistan": 6052,
      "venue": 6053,
      "Ġacadem": 6054,
      "Ġê³µìĤ°": 6055,
      "ees": 6056,
      "azz": 6057,
      "ê²łëĭ¤": 6058,
      "ĠâĨĴ": 6059,
      "Ġcome": 6060,
      "iro": 6061,
      "Ġlittle": 6062,
      "ĠColumbia": 6063,
      "mark": 6064,
      "68": 6065,
      "ĠJack": 6066,
      "ĠMos": 6067,
      "iana": 6068,
      "ancial": 6069,
      "ario": 6070,
      "ĠìŀĲê¸°": 6071,
      "ĠBob": 6072,
      "Ġ1959": 6073,
      "acing": 6074,
      "ëĮĢìĥģ": 6075,
      "Ġ1946": 6076,
      "ëĭ¤ê³ł": 6077,
      "Ġëįķ": 6078,
      "58": 6079,
      "ĠAwards": 6080,
      "Ġ1958": 6081,
      "¢°": 6082,
      "ĠìľĮ": 6083,
      "ĠBBC": 6084,
      "va": 6085,
      "ongs": 6086,
      "Ġconcern": 6087,
      "Ġ1949": 6088,
      "Ġë¶Īê°Ģ": 6089,
      "ĠìŀĲìĭłìĿ´": 6090,
      "Ġconstru": 6091,
      "ĠìłĦìŀĲ": 6092,
      "Ġlocation": 6093,
      "ĠìĹ°ì£¼": 6094,
      "ĠMost": 6095,
      "Ġactive": 6096,
      "Ġparent": 6097,
      "ĠRos": 6098,
      "ify": 6099,
      "Ġmagazine": 6100,
      "Ġì¹ľêµ¬": 6101,
      "çĽ": 6102,
      "íĺĶëĭ¤": 6103,
      "Ġfif": 6104,
      "Ġadditional": 6105,
      "ëıĻìķĪ": 6106,
      "atform": 6107,
      "ĠìŀĪëĭ¤ëĬĶ": 6108,
      "Ġì§Ģì§Ģ": 6109,
      "ë¬´ë¥¼": 6110,
      "ĠDutch": 6111,
      "ĠDou": 6112,
      "Ġê±°ì³Ĳ": 6113,
      "Ġliving": 6114,
      "æĸĩ": 6115,
      "ĠValley": 6116,
      "Ġapproximately": 6117,
      "Ġshot": 6118,
      "Ġtrade": 6119,
      "mentary": 6120,
      "ĠVirginia": 6121,
      "iano": 6122,
      "Ġsoon": 6123,
      "Ã¨": 6124,
      "Ġer": 6125,
      "ìĿ´ìĹĲ": 6126,
      "Ġtheory": 6127,
      "Ġwriting": 6128,
      "Ġindividual": 6129,
      "ĠTour": 6130,
      "Ġrad": 6131,
      "ĠìĹ¬ê¸°": 6132,
      "enth": 6133,
      "Ġê°ľëħĲ": 6134,
      "Ġven": 6135,
      "æĻ": 6136,
      "ë©ĺ": 6137,
      "ĠBul": 6138,
      "Ġgrand": 6139,
      "ìľĦë¡ľ": 6140,
      "asy": 6141,
      "ĠìĿ´ê²ĥìĿĢ": 6142,
      "ĠìĽ¨": 6143,
      "irit": 6144,
      "ĠíĴĢ": 6145,
      "Ġartist": 6146,
      "Ġassociated": 6147,
      "ON": 6148,
      "alle": 6149,
      "ìĿ¼íķľ": 6150,
      "Ġcomplete": 6151,
      "Ġdefeat": 6152,
      "ĠëĬĺ": 6153,
      "vey": 6154,
      "ĠPac": 6155,
      "ĠìĦłìĸ¸": 6156,
      "ĠìĤ¬ê³ł": 6157,
      "Ġë³´íĺ¸": 6158,
      "2017": 6159,
      "Ġbox": 6160,
      "Ġowned": 6161,
      "Ġarm": 6162,
      "ĠíĹĮë²ķ": 6163,
      "ĩĮ": 6164,
      "Ġ1956": 6165,
      "ĠDef": 6166,
      "ĠìĨĮìŀ¬": 6167,
      "ê¸°ìĻĢ": 6168,
      "iÄ": 6169,
      "Ġreligious": 6170,
      "igr": 6171,
      "Ġcomplet": 6172,
      "ĠêµĲíļĮ": 6173,
      "Ġhighest": 6174,
      "Ġscored": 6175,
      "ĠScotland": 6176,
      "ĠMo": 6177,
      "Ġgirl": 6178,
      "Ġprem": 6179,
      "ì¤Ħ": 6180,
      "ĠAre": 6181,
      "eff": 6182,
      "æµ": 6183,
      "Ġmove": 6184,
      "ìĤ¬ìĹħ": 6185,
      "Ġwhom": 6186,
      "ready": 6187,
      "ì¤ĳíķĻêµĲ": 6188,
      "Ġended": 6189,
      "ëĿ¼ìĿĺ": 6190,
      "ìĦ¼íĦ°": 6191,
      "ĠìĻľ": 6192,
      "ĠíĮ¬": 6193,
      "ĠFestival": 6194,
      "Ġbreak": 6195,
      "ìł¤": 6196,
      "Ġsurround": 6197,
      "uals": 6198,
      "ë¬¸íķĻ": 6199,
      "ê³ĦìĿĺ": 6200,
      "oring": 6201,
      "íĶ¼ìĸ¸": 6202,
      "ĬìĿĢ": 6203,
      "ĠHealth": 6204,
      "Ġearlier": 6205,
      "ĠëĮĢì²´": 6206,
      "Ġìĺ¤ëĬĺ": 6207,
      "ĠìĺģêµŃìĿĺ": 6208,
      "Sp": 6209,
      "ëĵ¬": 6210,
      "Ġmer": 6211,
      "Ġactors": 6212,
      "Ã³n": 6213,
      "ĠíĿĶ": 6214,
      "SC": 6215,
      "ìĤ¬ì¹´": 6216,
      "ìļĶìĿ¼": 6217,
      "éĽ": 6218,
      "Ġinstr": 6219,
      "Ġìłģìļ©": 6220,
      "Ġterms": 6221,
      "Ġpersonal": 6222,
      "Ġnames": 6223,
      "ĠYoung": 6224,
      "ĠJewish": 6225,
      "Ġì¹ľìĿ¼": 6226,
      "ĠìĶ": 6227,
      "Ġ1947": 6228,
      "ìłķë³´": 6229,
      "Ġdivision": 6230,
      "Ġnar": 6231,
      "ìĦłìĿĺ": 6232,
      "Ġë¬¸íķĻ": 6233,
      "Ġscreen": 6234,
      "ëĮĢìłĦ": 6235,
      "uffer": 6236,
      "Ġwood": 6237,
      "ĠUEFA": 6238,
      "Ġunit": 6239,
      "cing": 6240,
      "Ġkeep": 6241,
      "66": 6242,
      "Ġìŀīê¸Ģëŀľëĵľ": 6243,
      "sylvania": 6244,
      "Ġenvironment": 6245,
      "ìľµ": 6246,
      "Ġbatt": 6247,
      "ĠFound": 6248,
      "ìĩĦ": 6249,
      "ysis": 6250,
      "ums": 6251,
      "Ġëĥ": 6252,
      "Ġver": 6253,
      "ĠSur": 6254,
      "Ġcand": 6255,
      "Ġê°ĢíĨ¨ë¦Ń": 6256,
      "Ġdegree": 6257,
      "ëıĦìļ°": 6258,
      "ĠìĿ´ëŁ°": 6259,
      "1993": 6260,
      "Ġbridge": 6261,
      "ĠFred": 6262,
      "king": 6263,
      "aring": 6264,
      "Ġlook": 6265,
      "Ġ90": 6266,
      "Ñģ": 6267,
      "uty": 6268,
      "Ġstudio": 6269,
      "ëįľëŀĢëĵľ": 6270,
      "ìĦŃ": 6271,
      "Ġëª¨ìĸĳ": 6272,
      "Ġceleb": 6273,
      "Treat": 6274,
      "overs": 6275,
      "Ġcolon": 6276,
      "Ġê³¼ê±°": 6277,
      "Can": 6278,
      "ĠíĿ¥": 6279,
      "ider": 6280,
      "Ġremains": 6281,
      "Ġíĥĳ": 6282,
      "Ġtaking": 6283,
      "Ġnomin": 6284,
      "Ġsummer": 6285,
      "ì£¼ìĭľ": 6286,
      "ë¥´ê²Į": 6287,
      "ë¢°": 6288,
      "osoph": 6289,
      "itors": 6290,
      "Ġpay": 6291,
      "Ġenergy": 6292,
      "Ġ1942": 6293,
      "ĠìłĦê¸°": 6294,
      "íĻĶêµŃìĿĺ": 6295,
      "Ġcentre": 6296,
      "Ġsequ": 6297,
      "Ġlimited": 6298,
      "ID": 6299,
      "Ġå": 6300,
      "ëĵľë¦¬": 6301,
      "ĠìŀĪìĸ´ìĦľ": 6302,
      "BO": 6303,
      "CC": 6304,
      "ĠHaw": 6305,
      "Ġcontains": 6306,
      "êµ¬ìĹŃ": 6307,
      "1992": 6308,
      "Ġë¶Ħìķ¼": 6309,
      "Ġtournament": 6310,
      "Col": 6311,
      "iant": 6312,
      "ĠìĹ°ê¸°": 6313,
      "Ġdiffic": 6314,
      "íĮĶ": 6315,
      "Ġsat": 6316,
      "Ġthought": 6317,
      "Ġgra": 6318,
      "obal": 6319,
      "Ġ1943": 6320,
      "ëľ": 6321,
      "Ġfuture": 6322,
      "Ðµ": 6323,
      "Ġeth": 6324,
      "ares": 6325,
      "ĠìĹĨìĹĪëĭ¤": 6326,
      "ĠAlb": 6327,
      "ĠìķĦìĭľ": 6328,
      "Se": 6329,
      "2018": 6330,
      "ĠSer": 6331,
      "ĠíĿĳ": 6332,
      "press": 6333,
      "ĠëĿ": 6334,
      "ĠMat": 6335,
      "Ġaltern": 6336,
      "oston": 6337,
      "ĠíĻķìŀ¥": 6338,
      "ëªħìĿĢ": 6339,
      "Ð½": 6340,
      "rown": 6341,
      "ĠOh": 6342,
      "ansas": 6343,
      "åŃĲ": 6344,
      "ãĢı": 6345,
      "ols": 6346,
      "ìĦ±ê³¼": 6347,
      "Ġë¬¼ì§Ī": 6348,
      "ĠIslam": 6349,
      "ìħĶ": 6350,
      "fit": 6351,
      "ìķĦìĭľìķĦ": 6352,
      "Ġchanges": 6353,
      "ĠëĮĢíķĺìĹ¬": 6354,
      "ĠAlbert": 6355,
      "Ġ1955": 6356,
      "ella": 6357,
      "Ġorganization": 6358,
      "ìłķìĹĲ": 6359,
      "Ġequip": 6360,
      "Ġclear": 6361,
      "Ġmention": 6362,
      "ìĦ±ìĹĲ": 6363,
      "adel": 6364,
      "ĠOx": 6365,
      "ìĿ´ëŀĢ": 6366,
      "isation": 6367,
      "ĠNavy": 6368,
      "ĠìĿ¼ë°ĺìłģìľ¼ë¡ľ": 6369,
      "ĠProvince": 6370,
      "Ġcollection": 6371,
      "Ġeconomic": 6372,
      "Ġì¶ľìłĦ": 6373,
      "izations": 6374,
      "Ġinvestig": 6375,
      "nes": 6376,
      "Ġíģ´ëŁ½": 6377,
      "Ġincreased": 6378,
      "ìĭľì¼ľ": 6379,
      "ĠBre": 6380,
      "ë¶Ģê°Ģ": 6381,
      "ëĭī": 6382,
      "ë¯¼ì¡±": 6383,
      "Ġë©¤ë²Ħ": 6384,
      "Ġê°Ģì¡±": 6385,
      "irm": 6386,
      "ĠRussia": 6387,
      "ìĤ¬ê´Ģ": 6388,
      "íĤ¤ëĬĶ": 6389,
      "ĠCommittee": 6390,
      "ĠìĿ´ìĥģìĿĺ": 6391,
      "Ġreferred": 6392,
      "rief": 6393,
      "ĠLong": 6394,
      "Ġprob": 6395,
      "Ġmission": 6396,
      "79": 6397,
      "Person": 6398,
      "ken": 6399,
      "kins": 6400,
      "ĠìŀĪì§Ģë§Į": 6401,
      "isco": 6402,
      "Ġhockey": 6403,
      "Ġcell": 6404,
      "ìĦ¸ë¥¼": 6405,
      "Ġsaf": 6406,
      "ĠEarth": 6407,
      "Ġì·¨ìŀĦ": 6408,
      "ë¯¸êµŃ": 6409,
      "Ġë°Ľê³ł": 6410,
      "ĠDemocr": 6411,
      "ĠMah": 6412,
      "ìĽĲìĹĲ": 6413,
      "\"|": 6414,
      "ëıĦìĭľ": 6415,
      "Ġëªħëł¹": 6416,
      "ĠBroad": 6417,
      "pts": 6418,
      "ĠíĿĲ": 6419,
      "íķĺëĿ¼": 6420,
      "inct": 6421,
      "ĠBus": 6422,
      "Ġprior": 6423,
      "Ġ1957": 6424,
      "ĠHot": 6425,
      "ĠEastern": 6426,
      "íĸĪëĭ¤ê³ł": 6427,
      "Ġê³ĦìĹ´": 6428,
      "ĠTim": 6429,
      "Ġhum": 6430,
      "ipl": 6431,
      "Ġnuc": 6432,
      "Ġ1941": 6433,
      "Ġëĵ±ìĹĲ": 6434,
      "ĠSouthern": 6435,
      "Ġmostly": 6436,
      "ê¸°ìĪł": 6437,
      "ĠTheatre": 6438,
      "ĠCarolina": 6439,
      "ĠëįĶìļ±": 6440,
      "Ġcaused": 6441,
      "Ġstudent": 6442,
      "ĠHel": 6443,
      "Ġmultiple": 6444,
      "Ġë²łìĿ´": 6445,
      "aud": 6446,
      "win": 6447,
      "adron": 6448,
      "rying": 6449,
      "êµ°ìĹĲ": 6450,
      "Ġemer": 6451,
      "íŀĮ": 6452,
      "standing": 6453,
      "íĤ¹": 6454,
      "Ġtrain": 6455,
      "íķĺìĿ´": 6456,
      "TA": 6457,
      "ĠCross": 6458,
      "ìĨĮê°Ģ": 6459,
      "Ġìĸ´ëĬĲ": 6460,
      "64": 6461,
      "Ġnumerous": 6462,
      "Ġìĸ¸ë¡ł": 6463,
      "Ġord": 6464,
      "Ðº": 6465,
      "Ġpractice": 6466,
      "ê°Ģì§Ģ": 6467,
      "ĠAsia": 6468,
      "éĸ": 6469,
      "ĠSpain": 6470,
      "Ġì¹Ń": 6471,
      "uge": 6472,
      "aria": 6473,
      "Ġ1939": 6474,
      "ëĢ": 6475,
      "Ġìĭľë¯¼": 6476,
      "Ġforest": 6477,
      "Ġsett": 6478,
      "ĠPennsylvania": 6479,
      "ĠìŀĳìĹħ": 6480,
      "ati": 6481,
      "Le": 6482,
      "Ġ1952": 6483,
      "ì§ĢíĦ¸": 6484,
      "igg": 6485,
      "arden": 6486,
      "ĠìĦłíĥĿ": 6487,
      "ìĭľíĤ¨": 6488,
      "retary": 6489,
      "Ġsize": 6490,
      "iled": 6491,
      "Ġëĵ±ìľ¼ë¡ľ": 6492,
      "ĠAv": 6493,
      "ë§ĮìĿĦ": 6494,
      "lo": 6495,
      "ë©Ķë¦¬ì¹´": 6496,
      "Ġìµľì´Īë¡ľ": 6497,
      "comm": 6498,
      "Ġë³ĢíĻĶ": 6499,
      "SS": 6500,
      "ĠCam": 6501,
      "Ġ1954": 6502,
      "IN": 6503,
      "anda": 6504,
      "Ġseasons": 6505,
      "ĠìĽĢ": 6506,
      "Ġlonger": 6507,
      "ìĿ´ì§Ģë§Į": 6508,
      "ìłĿ": 6509,
      "Ġissues": 6510,
      "Ġpen": 6511,
      "åľĭ": 6512,
      "Ġappearance": 6513,
      "ĠìĿ¼ìłľ": 6514,
      "oir": 6515,
      "ĠLatin": 6516,
      "rative": 6517,
      "Ġalready": 6518,
      "ĠTime": 6519,
      "Ġcust": 6520,
      "velopment": 6521,
      "ensus": 6522,
      "Ġêµ¬ë¶Ħ": 6523,
      "ĠLine": 6524,
      "Ġdu": 6525,
      "Ġcases": 6526,
      "Ġpoet": 6527,
      "88": 6528,
      "Ġ1953": 6529,
      "ë¦ŃíĦ°": 6530,
      "ĠTeam": 6531,
      "ĠThat": 6532,
      "ĠìĿ´ìĻĢ": 6533,
      "Ġmoney": 6534,
      "ĠLord": 6535,
      "Ġìļ°ë¦¬": 6536,
      "ìĭľëĮĢ": 6537,
      "Ġbaseball": 6538,
      "iance": 6539,
      "Ġê°ĳ": 6540,
      "ĠìķĦìĭľìķĦ": 6541,
      "Ġsu": 6542,
      "ĠìĺĽ": 6543,
      "ìĭ¬ìĿĦ": 6544,
      "ãĥ»": 6545,
      "ĠKe": 6546,
      "Ġevidence": 6547,
      "Ġlanguages": 6548,
      "Ġrunning": 6549,
      "Ġconstit": 6550,
      "Ġalign": 6551,
      "All": 6552,
      "ĠìĿ´ìĤ¬": 6553,
      "ĠìĿµ": 6554,
      "Ġopening": 6555,
      "ĠìĬ¤íİĺìĿ¸": 6556,
      "Ġmajority": 6557,
      "ìĿĢíĸī": 6558,
      "ì´Īëĵ±íķĻêµĲ": 6559,
      "Ġì§ķ": 6560,
      "Ġnoted": 6561,
      "John": 6562,
      "ëłĩê²Į": 6563,
      "Ġìĺ¬ëĿ¼": 6564,
      "cel": 6565,
      "ĠSub": 6566,
      "://": 6567,
      "Ġoperated": 6568,
      "ĠCr": 6569,
      "íĺ¸ëĬĶ": 6570,
      "dis": 6571,
      "Ġë°ĶëĢ": 6572,
      "ĠBrazil": 6573,
      "Ġanti": 6574,
      "Ġëķħ": 6575,
      "izing": 6576,
      "Ġíıīê·ł": 6577,
      "Ġê¸°ì¤Ģìľ¼ë¡ľ": 6578,
      "1991": 6579,
      "Ġpercent": 6580,
      "ìī": 6581,
      "Ġë¶Ģì¡±": 6582,
      "rie": 6583,
      "ĠìĤ¬ìļ©íķĺëĬĶ": 6584,
      "ĠRailway": 6585,
      "ĠSat": 6586,
      "bury": 6587,
      "ĠMiddle": 6588,
      "ĠBlue": 6589,
      "Ġdraw": 6590,
      "inem": 6591,
      "Ġlisted": 6592,
      "ĠêµŃê°ĢëĮĢíĳľíĮĢ": 6593,
      "Ġì¶ľìĭľ": 6594,
      "íĸĪëĬĶëį°": 6595,
      "Ġëį°ìĿ´íĦ°": 6596,
      "ĠíĺķìĭĿ": 6597,
      "Ġlegal": 6598,
      "ĠGood": 6599,
      "Ġrate": 6600,
      "92": 6601,
      "Ġstri": 6602,
      "ĠSol": 6603,
      "Ġexam": 6604,
      "Ġwestern": 6605,
      "ĠSo": 6606,
      "Ġì¶ľíĮĲ": 6607,
      "Ġprograms": 6608,
      "96": 6609,
      "Ġë¹Ľ": 6610,
      "iography": 6611,
      "ëĤĺìĿ´": 6612,
      "Ġran": 6613,
      "Ġattended": 6614,
      "ê²½ìłľ": 6615,
      "ëĤĺê°Ģ": 6616,
      "plement": 6617,
      "ĠSea": 6618,
      "pose": 6619,
      "ĠMP": 6620,
      "ĠGal": 6621,
      "Ġ(~": 6622,
      "Ġë°Ľìķĺ": 6623,
      "Ġnews": 6624,
      "å®Ĺ": 6625,
      "ĠëĽ°ìĸ´": 6626,
      "Ġens": 6627,
      "Ġsum": 6628,
      "ĠRo": 6629,
      "emporary": 6630,
      "ë§ĮìĿ´": 6631,
      "íĹ¨": 6632,
      "ĠPortug": 6633,
      ".(": 6634,
      "iy": 6635,
      "56": 6636,
      "Ġlength": 6637,
      "ĠëĦ£": 6638,
      "Ġsom": 6639,
      "erem": 6640,
      "Ġforms": 6641,
      "ëĭ¨ìĿĦ": 6642,
      "Ġdate": 6643,
      "ëĶĶìĸ´": 6644,
      "wa": 6645,
      "ĠLee": 6646,
      "ĠInt": 6647,
      "Ġtoday": 6648,
      "ocal": 6649,
      "Ġê·ľëª¨": 6650,
      "íĬ¸ëĬĶ": 6651,
      "ĠCivil": 6652,
      "ëĵľë¥¼": 6653,
      "reater": 6654,
      "ìłķìĿ´": 6655,
      "ĠíĻľëıĻìĿĦ": 6656,
      "add": 6657,
      "ĠêµŃíļĮìĿĺìĽĲ": 6658,
      "ĠWinter": 6659,
      "ìĥģìĿ´": 6660,
      "ìĽĢìĿĦ": 6661,
      "Ġsuffer": 6662,
      "ĠScottish": 6663,
      "awa": 6664,
      ")(": 6665,
      "ĠâĨĶ": 6666,
      "ëĵľìĿĺ": 6667,
      "ĠìļĶìĭľ": 6668,
      "Ġë°°ê²½": 6669,
      "ĠëĤ´ëł¤": 6670,
      "ë°į": 6671,
      "ë¬¼ìĿĺ": 6672,
      "Ġdon": 6673,
      "Ġmeaning": 6674,
      "Ġ?": 6675,
      "Ġrap": 6676,
      "Ġì±Ķ": 6677,
      "ampion": 6678,
      "Ġìŀĥ": 6679,
      "onse": 6680,
      "Ġfamous": 6681,
      "Ġspent": 6682,
      "Ġchem": 6683,
      "Ġlack": 6684,
      "Ġìµľì¢ħ": 6685,
      "burgh": 6686,
      "Ġseparate": 6687,
      "ĠìĮį": 6688,
      "ĠLiber": 6689,
      "Ġbetter": 6690,
      "ĠJud": 6691,
      "Ġë³´ìĿ¸ëĭ¤": 6692,
      "ĠBank": 6693,
      "allery": 6694,
      "ìĹ¬ìŀĲ": 6695,
      "la": 6696,
      "idae": 6697,
      "Ġstudies": 6698,
      "İìĿĢ": 6699,
      "ĠëĮĢë¶Ģë¶ĦìĿĺ": 6700,
      "ĠìĺĪìĪł": 6701,
      "ĠHon": 6702,
      "ĠSpe": 6703,
      "ĠìŀĶ": 6704,
      "Ġactivities": 6705,
      "Ġì²łëıĦìĹŃ": 6706,
      "Ġdrop": 6707,
      "íķĻìłģ": 6708,
      "Ġë¯¿": 6709,
      "Ġì¡°ê±´": 6710,
      "ĠAssembly": 6711,
      "Ġmem": 6712,
      "Treaties": 6713,
      "otion": 6714,
      "Ġ300": 6715,
      "ë£¬": 6716,
      "Ġbelow": 6717,
      "ules": 6718,
      "ĠChampionships": 6719,
      "Ġlog": 6720,
      "ĠStep": 6721,
      "Ġconsider": 6722,
      "Ġíķĺì§Ģ": 6723,
      "Ġstatus": 6724,
      "ìĬ¤íĭ°": 6725,
      "êµŃê°Ģ": 6726,
      "ĠìłľêµŃìĿĺ": 6727,
      "Ġlarger": 6728,
      "FM": 6729,
      "ĠLab": 6730,
      "Ġappears": 6731,
      "ĠWind": 6732,
      "Ġimmedi": 6733,
      "ĠíŀĪë¡ľ": 6734,
      "Ġmach": 6735,
      "gent": 6736,
      "Ġê±¸ì³Ĳ": 6737,
      "1970": 6738,
      "itation": 6739,
      "ĠSocial": 6740,
      "umber": 6741,
      "ĠìĬ¤íı¬ì¸ł": 6742,
      "Ġlines": 6743,
      "Ġê²¨": 6744,
      "ìĿ´ë¡ľ": 6745,
      "Ġamount": 6746,
      "ĠíĻķìĿ¸": 6747,
      "Ġinterview": 6748,
      "Ġforced": 6749,
      "Ġparticularly": 6750,
      "ê°ľìĽĶ": 6751,
      "Ġnorm": 6752,
      "Â°": 6753,
      "onic": 6754,
      "ĠSpr": 6755,
      "Ġindic": 6756,
      "state": 6757,
      "Ġìĺģìĸ´": 6758,
      "ĠCle": 6759,
      "ĠìĿ´ìľłë¡ľ": 6760,
      "Ġbecoming": 6761,
      "ìŀĶ": 6762,
      "aka": 6763,
      "Ġlived": 6764,
      "ĠêµŃë¦½": 6765,
      "Ġdom": 6766,
      "ĠEngine": 6767,
      "apers": 6768,
      "Ġfeature": 6769,
      "omer": 6770,
      "ĠìĤ¼ìĦ±": 6771,
      "ĠQueen": 6772,
      "tra": 6773,
      "ëĤ´ëĬĶ": 6774,
      "rif": 6775,
      "ĠNot": 6776,
      "Ġspecific": 6777,
      "Ġì¡°ìķ½": 6778,
      "ÑĢ": 6779,
      "uries": 6780,
      "AN": 6781,
      "Ġice": 6782,
      "ĠìĦłì¶ľ": 6783,
      "Ġìĭ¤ìłľ": 6784,
      "Ġthreat": 6785,
      "ĠìµľëĮĢ": 6786,
      "Ġemb": 6787,
      "ê³µíķŃ": 6788,
      "íķľëĭ¤ëĬĶ": 6789,
      "Ġexhib": 6790,
      "ias": 6791,
      "house": 6792,
      "atively": 6793,
      "ĠSince": 6794,
      "ips": 6795,
      "ìľ¼ë¯Ģë¡ľ": 6796,
      "ĠíĽĦë°ĺ": 6797,
      "ties": 6798,
      "ì³¤ëĭ¤": 6799,
      "ëĿ¼ìĿ¸": 6800,
      "ĠJo": 6801,
      "Ġded": 6802,
      "ĠëĲĺìĹĪê³ł": 6803,
      "iger": 6804,
      "íķµ": 6805,
      "Ġê³µíĻĶêµŃ": 6806,
      "Ġcommand": 6807,
      "Ġgive": 6808,
      "Ġvictory": 6809,
      "Ġë¶Ħë¦¬": 6810,
      "AM": 6811,
      "ĠìĹ´ì°¨": 6812,
      "ĠBab": 6813,
      "ayer": 6814,
      "stein": 6815,
      "agn": 6816,
      "íļĮìĤ¬": 6817,
      "íĬľ": 6818,
      "Ġë§ĪìĿĦ": 6819,
      "Ġmurder": 6820,
      "Ġancient": 6821,
      "Ġplatform": 6822,
      "ĠEdward": 6823,
      "ĠìĬ¹ë¦¬": 6824,
      "Ġê³łëĮĢ": 6825,
      "Ġstadium": 6826,
      "Ġì°¬": 6827,
      "Ġunivers": 6828,
      "Ġë°´ëĵľ": 6829,
      "Ġelev": 6830,
      "ĠIran": 6831,
      "isher": 6832,
      "Ġinstit": 6833,
      "ìĿ¼ìĿĦ": 6834,
      "ora": 6835,
      "ĠOf": 6836,
      "Ġx": 6837,
      "aily": 6838,
      "wan": 6839,
      "ĠSar": 6840,
      "Ġë§º": 6841,
      "Ġìĸ´ëł¤": 6842,
      "67": 6843,
      "ì¡°ìĿĺ": 6844,
      "Ġpie": 6845,
      "rich": 6846,
      "Ġforeign": 6847,
      "ĠMid": 6848,
      "ë¦¬ìķĦìĿĺ": 6849,
      "Ġíļ¨ê³¼": 6850,
      "97": 6851,
      "æķ": 6852,
      "Ġmonth": 6853,
      "Ġ33": 6854,
      "aine": 6855,
      "Ġê°Ģë¬¸": 6856,
      "Ġìķ¤": 6857,
      "ĠWeb": 6858,
      "ãģ®": 6859,
      "Ġissue": 6860,
      "chester": 6861,
      "Ġremain": 6862,
      "ĠìĿ´ìķ¼ê¸°": 6863,
      "ìĿ¼ëŀľëĵľ": 6864,
      "ko": 6865,
      "ĠëĳĲê³ł": 6866,
      "Ġíľĺ": 6867,
      "ê²¼ëĭ¤": 6868,
      "ĠRoute": 6869,
      "ĠKent": 6870,
      "Ġcomputer": 6871,
      "ĠBudd": 6872,
      "Ġinitially": 6873,
      "ault": 6874,
      "tained": 6875,
      "Ġì¶Ķìłķ": 6876,
      "ë©¸": 6877,
      "Ġlove": 6878,
      "Ġê´ĳì£¼": 6879,
      "emorial": 6880,
      "Ġíķĺëĭ¤": 6881,
      "ĠBal": 6882,
      "aya": 6883,
      "85": 6884,
      "put": 6885,
      "Ġbound": 6886,
      "Ġbene": 6887,
      "éķĩ": 6888,
      "Ġhot": 6889,
      "omy": 6890,
      "Ġsingles": 6891,
      "íķĺëıĦë¡Ŀ": 6892,
      "ĠIf": 6893,
      "ìłł": 6894,
      "Ġì¢ĭìĿĢ": 6895,
      "Ġtemper": 6896,
      "è¨": 6897,
      "Ġsource": 6898,
      "Ġdiscuss": 6899,
      "íķ¨ìľ¼ë¡ľìį¨": 6900,
      "areer": 6901,
      "Ġthemsel": 6902,
      "Ġfocus": 6903,
      "Ġë¶Īêµ¬": 6904,
      "Ġthemselves": 6905,
      "Ġbelieved": 6906,
      "acher": 6907,
      "inent": 6908,
      "ĠNight": 6909,
      "ëŁ¬ìĬ¤": 6910,
      "Ġepisodes": 6911,
      "arriage": 6912,
      "inals": 6913,
      "ĠGovern": 6914,
      "ĠìłĲëł¹": 6915,
      "rison": 6916,
      "ëĿ¼ìĬ¤": 6917,
      "ocese": 6918,
      "riz": 6919,
      "Ġlic": 6920,
      "ìŀĲëĵ¤ìĿĢ": 6921,
      "ricket": 6922,
      "ĠKar": 6923,
      "akers": 6924,
      "Ġwoman": 6925,
      "ë¡ľìĬ¤": 6926,
      "nam": 6927,
      "Ġdise": 6928,
      "Ġíİĺë¥´": 6929,
      "ih": 6930,
      "ê°ķìłĲ": 6931,
      "Ġë²ķë¥ł": 6932,
      "ĠMatt": 6933,
      "ĠìĬĪíį¼": 6934,
      "Ġchief": 6935,
      "ĠìĿ´ìĬ¹": 6936,
      "íĸīìłķ": 6937,
      "ĠPrem": 6938,
      "ĠGirl": 6939,
      "urban": 6940,
      "ĠBoard": 6941,
      "Ġcourse": 6942,
      "ĠMore": 6943,
      "ĠìĨĶ": 6944,
      "íĺĪ": 6945,
      "Ġrequire": 6946,
      "é«ĺ": 6947,
      "Ġì±ĶíĶ¼ìĸ¸": 6948,
      "ĠGar": 6949,
      "enes": 6950,
      "ìłģìĿ´": 6951,
      "ĠìĽĢì§ģ": 6952,
      "amm": 6953,
      "ĠìŀĲì£¼": 6954,
      "Ġcandid": 6955,
      "êµŃìłľ": 6956,
      "Ġcities": 6957,
      "ë¦¬ìĬ¤íĬ¸": 6958,
      "Ġess": 6959,
      "ĠMuslim": 6960,
      "CD": 6961,
      "Ġstructures": 6962,
      "Ġdecision": 6963,
      "ĠìĿ´íķ´": 6964,
      "ĠíĶĦëŀĳìĬ¤ìĿĺ": 6965,
      "ii": 6966,
      "ĠëĤĺìĺ¨": 6967,
      "Ġê°ķíĻĶ": 6968,
      "Ġpassed": 6969,
      "2019": 6970,
      "Ġestim": 6971,
      "irds": 6972,
      "ledge": 6973,
      "æĿ±": 6974,
      "ĠSund": 6975,
      "ë¡ľìĿĺ": 6976,
      "Ġdisp": 6977,
      "ìĭľíĤ¤ëĬĶ": 6978,
      "ĠFM": 6979,
      "Ġelements": 6980,
      "imb": 6981,
      "ela": 6982,
      "ìĶ©": 6983,
      "Ġfederal": 6984,
      "ĠResearch": 6985,
      "íĸĪìĿĦ": 6986,
      "Ġtracks": 6987,
      "ĠìĪĺìĥģìŀĲ": 6988,
      "1989": 6989,
      "Ġannual": 6990,
      "ë¡ľë§Ī": 6991,
      "2020": 6992,
      "Ġnumbers": 6993,
      "Ġalways": 6994,
      "peror": 6995,
      "ĠìĨĮë¹Ħ": 6996,
      "íĬ¼": 6997,
      "ëıĪ": 6998,
      "ĠCorps": 6999,
      "ĠMen": 7000,
      "OR": 7001,
      "ëĭĪë²ĦìĬ¤": 7002,
      "Ġì¡°ì§Ģ": 7003,
      "ĠJr": 7004,
      "Ġë°ľëĭ¬": 7005,
      "Ġmanagement": 7006,
      "fect": 7007,
      "Ġdire": 7008,
      "Ġë°©ë¬¸": 7009,
      "shire": 7010,
      "Films": 7011,
      "ĠPrince": 7012,
      "Ġë°¤": 7013,
      "Ġtakes": 7014,
      "ĠBoston": 7015,
      "Ġexc": 7016,
      "Ġunion": 7017,
      "Ġsurface": 7018,
      "Ġë¹Ħíĸī": 7019,
      "ĠUSA": 7020,
      "ĠìĺģíĨł": 7021,
      "ê¸°íĥĢ": 7022,
      "Ġëĭ¨ì²´": 7023,
      "Brit": 7024,
      "¨ë¦¬": 7025,
      "war": 7026,
      "57": 7027,
      "ĠCub": 7028,
      "ìŀĲëĵ¤ìĿ´": 7029,
      "ĠWay": 7030,
      "Ġspl": 7031,
      "ìĭłìĿĦ": 7032,
      "ĠìĨĮìľł": 7033,
      "Ġë¬¼ë¦¬": 7034,
      "ìĬ¤íĦ´": 7035,
      "etts": 7036,
      "ĠElect": 7037,
      "eeks": 7038,
      "ĠìŀĲë¦¬": 7039,
      "Ġë¹ĦëĶĶìĺ¤": 7040,
      "ìĹŃìĿĦ": 7041,
      "Ġquick": 7042,
      "ìĽĮíģ¬": 7043,
      "gypt": 7044,
      "ëłĪìĿ¼": 7045,
      "Ġshown": 7046,
      "ãĥ¼": 7047,
      "Ġmunicipal": 7048,
      "Aust": 7049,
      "inois": 7050,
      "ìĽłëĭ¤": 7051,
      "åŃ¸": 7052,
      "Des": 7053,
      "pected": 7054,
      "atri": 7055,
      "track": 7056,
      "å»": 7057,
      "Ġbrand": 7058,
      "ĠProfess": 7059,
      "å¥": 7060,
      "ĠìºĲë¦ŃíĦ°": 7061,
      "Ġvariety": 7062,
      "ĠMu": 7063,
      "86": 7064,
      "ëĤľëĭ¤": 7065,
      "ĠDev": 7066,
      "Ġlaunched": 7067,
      "51": 7068,
      "ĠBor": 7069,
      "Ġvalue": 7070,
      "Ġbomb": 7071,
      "ĠìŀĪê²Į": 7072,
      "Ġìĭ¤íĹĺ": 7073,
      "Ġwide": 7074,
      "íģ¼": 7075,
      "Ġprop": 7076,
      "Ġfle": 7077,
      "ìĨĮìĿĺ": 7078,
      "Ġclubs": 7079,
      "ĠHa": 7080,
      "ĠJones": 7081,
      "Ġincrease": 7082,
      "Ġmechan": 7083,
      "Ġentered": 7084,
      "ëĮĢíļĮ": 7085,
      "Ġìłľíķľ": 7086,
      "ĠBoy": 7087,
      "ĠìłķëıĦë¡ľ": 7088,
      "pre": 7089,
      "Ġwords": 7090,
      "axim": 7091,
      "54": 7092,
      "Ġinteg": 7093,
      "ìĬ¤ì¹´": 7094,
      "ĠìĤ¬ë¬´": 7095,
      "ĠìŀĦìĭľ": 7096,
      "ĠëĮĢì¤ĳ": 7097,
      "Ġofficer": 7098,
      "Å¡": 7099,
      "ìĿ¼ë³´": 7100,
      "Ġextended": 7101,
      "yan": 7102,
      "ĠMany": 7103,
      "ĠìłĦìĹĲ": 7104,
      "ĠJournal": 7105,
      "Ġoffered": 7106,
      "ĠëĵĿ": 7107,
      "Ġproperty": 7108,
      "ì½©": 7109,
      "incial": 7110,
      "Ġê·¸ë¦¼": 7111,
      "Ġë°ĺìĿĳ": 7112,
      "Ġdouble": 7113,
      "íĬ¸ëĤ¨": 7114,
      "Ġì£¼ë¯¼": 7115,
      "Ġêµ°ìĿ¸": 7116,
      "ì°¨ë¡ľ": 7117,
      "Ġìĸ¸ê¸ī": 7118,
      "Rec": 7119,
      "iga": 7120,
      "ìħľ": 7121,
      "ĠChief": 7122,
      "ĠFour": 7123,
      "ĠìĿ´ë¦ĦìĿĢ": 7124,
      "ĠëģĮ": 7125,
      "Ġè": 7126,
      "adelph": 7127,
      "Med": 7128,
      "Ġmight": 7129,
      "Ġleaving": 7130,
      "ĠMajor": 7131,
      "ja": 7132,
      "Ġstep": 7133,
      "yer": 7134,
      "ĠìĭŃ": 7135,
      "ĠTre": 7136,
      "iÄĩ": 7137,
      "ìĬ¤íħĮ": 7138,
      "1988": 7139,
      "ĠBelg": 7140,
      "ĠAlexander": 7141,
      "ë²łìĿ´": 7142,
      "ĠíĹ¬": 7143,
      "ĠìĿ´ëĵ¤ìĿĢ": 7144,
      "ìĸ´ìĦľ": 7145,
      "Ġ1951": 7146,
      "Ġë§Īë¥´": 7147,
      "Ġpil": 7148,
      "ìłľëĬĶ": 7149,
      "ĠOver": 7150,
      "ìĦ¯": 7151,
      "Ġlatter": 7152,
      "ublican": 7153,
      "Ġcitiz": 7154,
      "Ġìĵ´": 7155,
      "ĠOxford": 7156,
      "53": 7157,
      "ìľĦìĿĺ": 7158,
      "Ġclaimed": 7159,
      "Ġhapp": 7160,
      "Ġcreate": 7161,
      "Ġoil": 7162,
      "Ġnine": 7163,
      "ĠPacific": 7164,
      "inet": 7165,
      "ronic": 7166,
      "Ġhours": 7167,
      "Ġrecent": 7168,
      "ĠOb": 7169,
      "52": 7170,
      "å¼": 7171,
      "down": 7172,
      "range": 7173,
      "ĠTw": 7174,
      "chestra": 7175,
      "ĠFA": 7176,
      "ĠOlympic": 7177,
      "ì§Ģì§Ģ": 7178,
      "ĠEnter": 7179,
      "Ġdyn": 7180,
      "ĠDun": 7181,
      "no": 7182,
      "ctic": 7183,
      "ĠVer": 7184,
      "íķĻìĥĿ": 7185,
      "ìļ°ë¦¬": 7186,
      "ì¼ľ": 7187,
      "sen": 7188,
      "Ġproblems": 7189,
      "Ġproposed": 7190,
      "ĠìĿ¸íĦ°ëĦ·": 7191,
      "íķĺìĿĺ": 7192,
      "Ġrepresented": 7193,
      "äºº": 7194,
      "Ġeastern": 7195,
      "adelphia": 7196,
      "Ġmiddle": 7197,
      "iring": 7198,
      "ĠìĿĺíķĺìĹ¬": 7199,
      "ĠìĨĮíĶĦíĬ¸ìĽ¨ìĸ´": 7200,
      "ĠAz": 7201,
      "Ġsea": 7202,
      "Ġ1938": 7203,
      "ì¹ĺê°Ģ": 7204,
      "Not": 7205,
      "ĠJul": 7206,
      "Ġsister": 7207,
      "Ġíĺģëªħ": 7208,
      "ĠShow": 7209,
      "ĠìĺĪë¥¼": 7210,
      "Ġsupported": 7211,
      "Ġmakes": 7212,
      "Ġpolicy": 7213,
      "Ġê´´": 7214,
      "ì§ĢìĻĢ": 7215,
      "Ġgoals": 7216,
      "IC": 7217,
      "Ġì§ĢìĨį": 7218,
      "ìĤ¬ìĿ´": 7219,
      "ĠAdm": 7220,
      "Ġlegisl": 7221,
      "íĺĳíļĮ": 7222,
      "isk": 7223,
      "ì§Ģë°©": 7224,
      "edd": 7225,
      "ë©´ìĹĲ": 7226,
      "Ġê°ľíĺģ": 7227,
      "Ġtroops": 7228,
      "Ġtarg": 7229,
      "ìľĪ": 7230,
      "Ġdetail": 7231,
      "ìłĦìĿĺ": 7232,
      "ì£¼êµĲ": 7233,
      "ĠíķĺìĿ´": 7234,
      "Ġseat": 7235,
      "ë£¨ìĬ¤": 7236,
      "ĠPC": 7237,
      ")'": 7238,
      "ìĻĶ": 7239,
      "ĠBand": 7240,
      "1987": 7241,
      "ĠìĤ¬ì§Ħ": 7242,
      "ìłĦìŁģ": 7243,
      "ĠìłķíĻķ": 7244,
      "ĠìĭłëĿ¼": 7245,
      "ĻìĿĢ": 7246,
      "Ġjob": 7247,
      "Ġë¶ĪêµĲ": 7248,
      "alion": 7249,
      "ĠìºĲëĤĺëĭ¤": 7250,
      "íĬ¸ë¦¬": 7251,
      "ishes": 7252,
      "ë¥´íĪ¬": 7253,
      "72": 7254,
      "more": 7255,
      "Ġì¡°ìĤ¬": 7256,
      "ira": 7257,
      "ĠìĤ¬ìĿ´ìĿĺ": 7258,
      "ĠRel": 7259,
      "poration": 7260,
      "ê²Ĳ": 7261,
      "ĠUr": 7262,
      "ĠDet": 7263,
      "aven": 7264,
      "ë¶Ģë¡ľ": 7265,
      "resp": 7266,
      "Ġrecording": 7267,
      "Ġrule": 7268,
      "åįĹ": 7269,
      "Ġinfluence": 7270,
      "Ġìłķëĭ¹": 7271,
      "71": 7272,
      "ables": 7273,
      "Ġbrief": 7274,
      "Ġì¶Ķì§Ħ": 7275,
      "ìĿĮìķħ": 7276,
      "Ġsubsequently": 7277,
      "heim": 7278,
      "Ġfoot": 7279,
      "Ġselected": 7280,
      "ëĲĺê¸°": 7281,
      "ìĤ¬ìĿ´íĬ¸": 7282,
      "ìľłëŁ½": 7283,
      "Ġuniversity": 7284,
      "Ġspeed": 7285,
      "59": 7286,
      "ìĿ¼ìĹĲëĬĶ": 7287,
      "Ġì¶©ì²Ń": 7288,
      "ĠTem": 7289,
      "ĠWomen": 7290,
      "Ġnature": 7291,
      "ĠíĨµìĿ¼": 7292,
      "ëłĢëĭ¤": 7293,
      "Ł³": 7294,
      "ĠìĿ´ë¡ľ": 7295,
      "Ġremaining": 7296,
      "uate": 7297,
      "ounds": 7298,
      "Ġë¶Īêµ¬íķĺê³ł": 7299,
      "ĠìļĶì²Ń": 7300,
      "Ġcommunities": 7301,
      "ìķĦìĿĺ": 7302,
      "achus": 7303,
      "Ġtechnology": 7304,
      "ë¹Ħë¥¼": 7305,
      "Ġacquired": 7306,
      "ĠëĦ¤ëįľëŀĢëĵľ": 7307,
      "Ġì£¼ìĿ¸": 7308,
      "ëĲ¨": 7309,
      "Ġhere": 7310,
      "ëĵ¤ëıĦ": 7311,
      "Ġìľłëŀĺ": 7312,
      "With": 7313,
      "ried": 7314,
      "ĠìķĦì§ģ": 7315,
      "ĠíĨµê³¼": 7316,
      "ë°ĶìĿ´": 7317,
      "illy": 7318,
      "Ġarrest": 7319,
      "Ġdone": 7320,
      "ë¬¼ê´Ģ": 7321,
      "Ġeditor": 7322,
      "ĠCommon": 7323,
      "ê¸ĪìĿĦ": 7324,
      "êµ¬ëł¤": 7325,
      "Ġì´ĪëĮĢ": 7326,
      "ìĺĪìĪł": 7327,
      "Ġcommission": 7328,
      "Ġserving": 7329,
      "74": 7330,
      "rovers": 7331,
      "Ġê²½ìĺģ": 7332,
      "chen": 7333,
      "ĠConference": 7334,
      "íĢ": 7335,
      "ĠWal": 7336,
      "Ġì¢ĭìķĦ": 7337,
      "Ġgoing": 7338,
      "phy": 7339,
      "Ġë§İëĭ¤": 7340,
      "ĠUl": 7341,
      "ĠFrancisco": 7342,
      "MS": 7343,
      "Ġinh": 7344,
      "onia": 7345,
      "Ġpit": 7346,
      "ously": 7347,
      "ìª½ìĹĲ": 7348,
      "ĠìłĦëĿ¼": 7349,
      "ĠLibrary": 7350,
      "urt": 7351,
      "ĠLittle": 7352,
      "ĠCoast": 7353,
      "rupt": 7354,
      "ĠBridge": 7355,
      "Ġtradition": 7356,
      "Ġë¹Ħíķ´": 7357,
      "Ġblock": 7358,
      "%)": 7359,
      "ä¸Ń": 7360,
      "owers": 7361,
      "omm": 7362,
      "Ġìłľì¡°": 7363,
      "å¤©": 7364,
      "ĠGuard": 7365,
      "ĠUnder": 7366,
      "Ġlabel": 7367,
      "Ġfort": 7368,
      "ĠëıĪ": 7369,
      "Ġhistorical": 7370,
      "ĠíĶĦë¡ľìłĿ": 7371,
      "Ġíĳľê¸°": 7372,
      "ìĺ¹": 7373,
      "arters": 7374,
      "Ġconditions": 7375,
      "ĠPeople": 7376,
      "ĠDie": 7377,
      "ĠLim": 7378,
      "abb": 7379,
      "89": 7380,
      "Mar": 7381,
      "ĠìŀĲëıĻì°¨": 7382,
      "ìłģìĿĢ": 7383,
      "ervation": 7384,
      "ĠTop": 7385,
      "people": 7386,
      "Ġweap": 7387,
      "Ġheavy": 7388,
      "ê²ĮìŀĦ": 7389,
      "Ġresponse": 7390,
      "ĠNY": 7391,
      "ĠOhio": 7392,
      "Ġformat": 7393,
      "Ġë¥ĺ": 7394,
      "Ġìµľê·¼": 7395,
      "inger": 7396,
      "ìĬ¤íĨł": 7397,
      "Ġalleg": 7398,
      "zech": 7399,
      "ĠPrize": 7400,
      "ĠTheir": 7401,
      "ĠWild": 7402,
      "Ġprovides": 7403,
      "Ġcontinu": 7404,
      "ĠíķĺëĤĺìĿĺ": 7405,
      "United": 7406,
      "íĺ¹": 7407,
      "teen": 7408,
      "Ġcarried": 7409,
      "ĠLG": 7410,
      "Ġprevent": 7411,
      "ĠWall": 7412,
      "verse": 7413,
      "ĠStr": 7414,
      "ĠIllinois": 7415,
      "Ġë°ľíĸī": 7416,
      "rice": 7417,
      "Ġretired": 7418,
      "Ġê²½ìļ°ê°Ģ": 7419,
      "ç§": 7420,
      "íľ´": 7421,
      "ëŀ«": 7422,
      "Ġscore": 7423,
      "Trans": 7424,
      "Ġíĳľìĭľ": 7425,
      "IT": 7426,
      "Ġë©¸": 7427,
      "ĠìŀĲì¹ĺ": 7428,
      "ìĿ¸ìľ¼ë¡ľ": 7429,
      "¿Ī": 7430,
      "ĠLater": 7431,
      "ĠGame": 7432,
      "ĠDVD": 7433,
      "ë§ĮìĿĺ": 7434,
      "ê³ĦìĹĲ": 7435,
      "Ġë¶Īë¦¬": 7436,
      "ĠHor": 7437,
      "ava": 7438,
      "Ġdiss": 7439,
      "Ġdifficult": 7440,
      "Ġinn": 7441,
      "Ġadj": 7442,
      "å¿": 7443,
      "ĠìĪĺì¤Ģ": 7444,
      "ĠSpecial": 7445,
      "writer": 7446,
      "ëŁīìĿ´": 7447,
      "ellig": 7448,
      "íķ´ìĿĺ": 7449,
      "vement": 7450,
      "ĠìŀĪìĹĪëįĺ": 7451,
      "ëª°": 7452,
      "British": 7453,
      "ĠSports": 7454,
      "Ġang": 7455,
      "National": 7456,
      "ĠìĻĦìłĦíŀĪ": 7457,
      "obile": 7458,
      "ì§ľ": 7459,
      "ĠìĻķêµŃ": 7460,
      "Ġì»¨": 7461,
      "Ġdomin": 7462,
      "ĠInf": 7463,
      "ĠëĶĶì§ĢíĦ¸": 7464,
      "ĠMichigan": 7465,
      "Ġaffili": 7466,
      "Ġinsp": 7467,
      "Ġmovie": 7468,
      "Ġê²ĥìĿ´ëĿ¼ê³ł": 7469,
      "achusetts": 7470,
      "êµ¬ë¥¼": 7471,
      "ĠJes": 7472,
      "oud": 7473,
      "Ġcause": 7474,
      "ricts": 7475,
      "Ġmainly": 7476,
      "acity": 7477,
      "ackson": 7478,
      "Ġê½ĥ": 7479,
      "Ġë§ĮíĻĶ": 7480,
      "mann": 7481,
      "Ġë§¨": 7482,
      "Ġê³µíķŃ": 7483,
      "Ġmetal": 7484,
      "ograp": 7485,
      "ĠìĻ¸êµĲ": 7486,
      "ĠëıĻë¬¼": 7487,
      "ĠCard": 7488,
      "antry": 7489,
      "éĢ": 7490,
      "ê¼": 7491,
      "ĠBet": 7492,
      "ĠìķĮëłī": 7493,
      "ìĹ½": 7494,
      "Ġweeks": 7495,
      "Ġmerg": 7496,
      "ĠEgypt": 7497,
      "Ġvoice": 7498,
      "ìĺ¤ì¹´": 7499,
      "ĠëªħìĺĪ": 7500,
      "Ġcollect": 7501,
      "ì»´": 7502,
      "ĠUnivers": 7503,
      "Ġincreasing": 7504,
      "ĠìĿ½": 7505,
      "Amendment": 7506,
      "61": 7507,
      "Ġpresented": 7508,
      "No": 7509,
      "ĠìĤ¬ëŀĮìĿ´": 7510,
      "Ġexcept": 7511,
      "ìĤ°ìĿĦ": 7512,
      "Ġarticle": 7513,
      "itude": 7514,
      "Ġëĵ±ê³¼": 7515,
      "ĠáĦ": 7516,
      "ĠGeorgia": 7517,
      "icted": 7518,
      "ĠKorea": 7519,
      "Further": 7520,
      "ĠìĶ¨": 7521,
      "ĠMcC": 7522,
      "ĠArm": 7523,
      "outheast": 7524,
      "Ġoperation": 7525,
      "ĠBern": 7526,
      "ĠEnd": 7527,
      "Ġìķ¡": 7528,
      "ìĤ°ìĹħ": 7529,
      "Ġê±°ëĳĲ": 7530,
      "Ġnearly": 7531,
      "When": 7532,
      "Ġëħ¼ëŀĢ": 7533,
      "ening": 7534,
      "94": 7535,
      "Ġë²ĪìĹŃ": 7536,
      "ĠRay": 7537,
      "ìĭĿìĿ´": 7538,
      "ĠíĴĪ": 7539,
      "Ġfailed": 7540,
      "inistry": 7541,
      "ambig": 7542,
      "Sports": 7543,
      "Ġcateg": 7544,
      "íĥĳ": 7545,
      "ĠEle": 7546,
      "ĠìľłìĤ¬": 7547,
      "ĠAndrew": 7548,
      "Ġíķĺë£¨": 7549,
      "ĠSand": 7550,
      "cean": 7551,
      "Ġnecess": 7552,
      "ìĪĺìĥģ": 7553,
      "Man": 7554,
      "ĠìĹĶì§Ħ": 7555,
      "ëŀį": 7556,
      "62": 7557,
      "Ġdirectly": 7558,
      "Ġìī½": 7559,
      "ĠOk": 7560,
      "PS": 7561,
      "hy": 7562,
      "ĠIslands": 7563,
      "Ġwhether": 7564,
      "Ġoverall": 7565,
      "Ġrecords": 7566,
      "ĠëıħìĿ¼ìĿĺ": 7567,
      "ĠìĦ±ë¦½": 7568,
      "Ġìĺ¤ëĬĺëĤł": 7569,
      "Ġëį´": 7570,
      "Ġproducts": 7571,
      "ĠìķĦíĤ¤": 7572,
      "Ġê´Ģì¸¡": 7573,
      "ĠìĦľìļ¸íĬ¹ë³Ħìĭľ": 7574,
      "åŁİ": 7575,
      "ĠíļĮìĤ¬": 7576,
      "AS": 7577,
      "nic": 7578,
      "ennis": 7579,
      "ĠCy": 7580,
      "êµŃë¯¼": 7581,
      "ĠEp": 7582,
      "ĠOtt": 7583,
      "ĠEll": 7584,
      "Ġvon": 7585,
      "Ġroom": 7586,
      "ì£¼ë¡ľ": 7587,
      "Ġfinancial": 7588,
      "ìłĦìŀĲ": 7589,
      "ĠCentre": 7590,
      "1986": 7591,
      "ì¹ĺê³ł": 7592,
      "ì¤ĳìķĻ": 7593,
      "Ġfinally": 7594,
      "Ġêµ¬ëĭ¨": 7595,
      "Ġpasseng": 7596,
      "ederation": 7597,
      "íİľ": 7598,
      "Ġconsists": 7599,
      "Ġminutes": 7600,
      "ĠêµŃìĻķ": 7601,
      "Ġrules": 7602,
      "ilies": 7603,
      "Ġíģ¬ë¦¬ìĬ¤": 7604,
      "Ġreason": 7605,
      "Ġdeep": 7606,
      "ĠJac": 7607,
      "ĠVan": 7608,
      "1985": 7609,
      "ê³µìĤ¬": 7610,
      "ìĦ¸ìĿ´": 7611,
      "Music": 7612,
      "Ġproduct": 7613,
      "Or": 7614,
      "ê±¸": 7615,
      "rance": 7616,
      "Ã¸": 7617,
      "Ġë¡Ŀ": 7618,
      "ìĿ¸ëį°": 7619,
      "Ġê¶¤": 7620,
      "ì§ģìĿĦ": 7621,
      "Ġmatches": 7622,
      "Ġeffects": 7623,
      "eld": 7624,
      "ìĹĨìĿ´": 7625,
      "ëĤĺìĿĺ": 7626,
      "Ġíķ´ìĦĿ": 7627,
      "ologist": 7628,
      "Ġlikely": 7629,
      "ĠMot": 7630,
      "Career": 7631,
      "Ġmedical": 7632,
      "Ġê²°ìĦ±": 7633,
      "bre": 7634,
      "ìĹĪìľ¼ë©°": 7635,
      "ë¥´ìĿĺ": 7636,
      "ĠChild": 7637,
      "Ġfa": 7638,
      "íĸĪëĭ¤ëĬĶ": 7639,
      "Ġpoor": 7640,
      "ëıĻìĹĲ": 7641,
      "Ġì¤ĳìĹĲ": 7642,
      "Ġcouncil": 7643,
      "ĠìĦłë°ľ": 7644,
      "orning": 7645,
      "Ġcollabor": 7646,
      "ĠìķĮê³ł": 7647,
      "West": 7648,
      "ìħĢ": 7649,
      "OM": 7650,
      "ëª¨ë¦¬": 7651,
      "íĻĢ": 7652,
      "Is": 7653,
      "Ġæ": 7654,
      "ìĽĶìĹĲëĬĶ": 7655,
      "ĠìłĦì²ł": 7656,
      "Ġautom": 7657,
      "Ġì²´ê²°": 7658,
      "ìłľêµŃ": 7659,
      "Ġê°ķëł¥": 7660,
      "light": 7661,
      "encies": 7662,
      "ê·¸ëĬĶ": 7663,
      "Ġconfl": 7664,
      "ĠìĤ¬ëĿ¼": 7665,
      "wide": 7666,
      "stone": 7667,
      "airman": 7668,
      "ocks": 7669,
      "Ġlevels": 7670,
      "Ġì¡°ìĦłë¯¼ì£¼ì£¼ìĿĺ": 7671,
      "abeth": 7672,
      "can": 7673,
      "ĠìŀĪìľ¼ëĤĺ": 7674,
      "Ġëī´ìļķ": 7675,
      "ë²ķìĿĦ": 7676,
      "Ġë§ĮëĤĺ": 7677,
      "ëĳĶ": 7678,
      "Ġë¶ģíķľ": 7679,
      "Ġlaws": 7680,
      "ĠLuc": 7681,
      "ĠCE": 7682,
      "Ġlos": 7683,
      "raq": 7684,
      "ëĭµ": 7685,
      "lav": 7686,
      "ëĵ¤ë¡ľ": 7687,
      "ê´ĢìĿĦ": 7688,
      "ëĤĺëĿ¼ìĿĺ": 7689,
      "ìĿ´íĽĦ": 7690,
      "Ġdiscovered": 7691,
      "ĠìĬ¤ìĬ¤ë¡ľ": 7692,
      "ë§İìĿĢ": 7693,
      "ali": 7694,
      "Ġbring": 7695,
      "Ġdespite": 7696,
      "ç¦": 7697,
      "ĠHind": 7698,
      "ĠBerlin": 7699,
      "Ġnewspaper": 7700,
      "Ġê·¸ëĵ¤ìĿĺ": 7701,
      "Ġcrew": 7702,
      "Ġsenior": 7703,
      "ĠPo": 7704,
      "Ġë¶Ģë¬¸": 7705,
      "orship": 7706,
      "--": 7707,
      "èĩ": 7708,
      "íĴĢ": 7709,
      "ĠëĦĲë¦¬": 7710,
      "ĠStation": 7711,
      "Ġprimarily": 7712,
      "ĠìķĬìķĦ": 7713,
      "ydro": 7714,
      "illed": 7715,
      "Ġbeat": 7716,
      "ĠStan": 7717,
      "ĠëĤĺëī": 7718,
      "ronze": 7719,
      "ĠëŁ°": 7720,
      "ìĿ¸ê³¼": 7721,
      "ëł¥ìĿĢ": 7722,
      "Ġcode": 7723,
      "ĠAvenue": 7724,
      "Ġê²ĥìĹĲ": 7725,
      "ambiguation": 7726,
      "adian": 7727,
      "ĠRog": 7728,
      "Ġturned": 7729,
      "Ġgrowth": 7730,
      "Ġsal": 7731,
      "Ġcomedy": 7732,
      "Ġ1936": 7733,
      "hens": 7734,
      "íıīìĸĳ": 7735,
      "Ġborder": 7736,
      "Ġë©Ģ": 7737,
      "ìļ°ìĬ¹": 7738,
      "ighter": 7739,
      "ê·¸ëŁ¬ëĤĺ": 7740,
      "IS": 7741,
      "ĠìĭľìĦ¤": 7742,
      "ĠCorn": 7743,
      "Ġcharg": 7744,
      "ĠMov": 7745,
      "cles": 7746,
      "Ġblood": 7747,
      "ĠìĤ¬ìļ©íķľëĭ¤": 7748,
      "çĻ": 7749,
      "ĠHuman": 7750,
      "Ġaffect": 7751,
      "Ġ400": 7752,
      "icks": 7753,
      "ĠìłľíĴĪ": 7754,
      "From": 7755,
      "ĠìĭĿë¯¼": 7756,
      "Ġpp": 7757,
      "Ġstarting": 7758,
      "ĠManag": 7759,
      "istance": 7760,
      "Ġì¦īìľĦ": 7761,
      "ĠTri": 7762,
      "ìĦ±ìľ¼ë¡ľ": 7763,
      "ĠBir": 7764,
      "uten": 7765,
      "ĠìłĦíķ´": 7766,
      "ë¯¸íĦ°": 7767,
      "ĠíĨµì¹ĺ": 7768,
      "Ġìĺ¤ëŀĺ": 7769,
      "Ġìķ¼ë§Ī": 7770,
      "ê½ĥ": 7771,
      "ĠAk": 7772,
      "Ġplays": 7773,
      "ê´ĢìĿĢ": 7774,
      "ëħĦê°Ħ": 7775,
      "ĠPower": 7776,
      "HL": 7777,
      "æĹ¥": 7778,
      "Ġplans": 7779,
      "2022": 7780,
      "Ġshoot": 7781,
      "ĠThree": 7782,
      "Ġê³Ħìķ½": 7783,
      "ĠìĺĪìłķ": 7784,
      "íĥĢìĿ´": 7785,
      "Ġprogramming": 7786,
      "ĠíĻľìķ½": 7787,
      "ĠViet": 7788,
      "olis": 7789,
      "ë¶Ģë¥´íģ¬": 7790,
      "1981": 7791,
      "Ġchannel": 7792,
      "ĠCreek": 7793,
      "ĠHung": 7794,
      "Ġìĭľê¸°": 7795,
      "ĠJohnson": 7796,
      "ession": 7797,
      "ĠWater": 7798,
      "onto": 7799,
      "ä¿": 7800,
      "Ġconcept": 7801,
      "Ġunc": 7802,
      "Ġpage": 7803,
      "ĠëķĮê¹Įì§Ģ": 7804,
      "93": 7805,
      "âĪ": 7806,
      "Ġchall": 7807,
      "Ġì¢ħë£Į": 7808,
      "ĠPhiladelphia": 7809,
      "esh": 7810,
      "Ġíļį": 7811,
      "ĠGh": 7812,
      "ĠìĹŃìŀĦ": 7813,
      "íĺķìĿĦ": 7814,
      "Ġsources": 7815,
      "umed": 7816,
      "ìłĲìĿ´": 7817,
      "Ġsoldiers": 7818,
      "ĠMarine": 7819,
      "ìĹĪëįĺ": 7820,
      "Ġì´": 7821,
      "Ġ34": 7822,
      "ĠìĿ´ë¦Ħìľ¼ë¡ľ": 7823,
      "å·ŀ": 7824,
      "ĠìķĦë¬´": 7825,
      "Ġrenamed": 7826,
      "Ġëª©íĳľ": 7827,
      "Ġhelped": 7828,
      "thur": 7829,
      "hemat": 7830,
      "Ġhouses": 7831,
      "ìĽĥ": 7832,
      "Ġconver": 7833,
      "Ġmuseum": 7834,
      "ĠìĿĮëł¥": 7835,
      "Ġëª¨ìĬµìĿĦ": 7836,
      "ĠLew": 7837,
      "ëĵ¤ëª©": 7838,
      "mission": 7839,
      "ĠMassachusetts": 7840,
      "Ġcompl": 7841,
      "ĠOfficial": 7842,
      "Ġwhole": 7843,
      "Ġinitial": 7844,
      "ĠField": 7845,
      "ë®¤": 7846,
      "ê·ľëª¨": 7847,
      "ìŀĲì¹ĺ": 7848,
      "Ġsymb": 7849,
      "Ġenough": 7850,
      "ĠWilliams": 7851,
      "edom": 7852,
      "Ġìĭľíĸī": 7853,
      "Ġsociety": 7854,
      "ĠPers": 7855,
      "ìķĦìĿ´": 7856,
      "Ġì°¨ë¡Ģ": 7857,
      "ais": 7858,
      "73": 7859,
      "She": 7860,
      "ĠëķĮëĬĶ": 7861,
      "inated": 7862,
      "Ġ1918": 7863,
      "Ġë¯¸ìĤ¬": 7864,
      "Ġë°Ķíĥķ": 7865,
      "ìĿ¼ê¹Įì§Ģ": 7866,
      "ech": 7867,
      "ìĭľëĬĶ": 7868,
      "iform": 7869,
      "ully": 7870,
      "Ġê²½ê¸°ìĹĲìĦľ": 7871,
      "Ġleave": 7872,
      "ìķĦê°Ģ": 7873,
      "ĠëıĻìĥĿ": 7874,
      "ĠìķĮëł¤ì§Ħ": 7875,
      "Ġpsych": 7876,
      "ìĦ¸ê³Ħ": 7877,
      "63": 7878,
      "ìĻĢëĬĶ": 7879,
      "íĭ±": 7880,
      "ë¦¿": 7881,
      "Ġê±°ë¶Ģ": 7882,
      "Ġkind": 7883,
      "Ġtypes": 7884,
      "Ġìłķê·ľ": 7885,
      "ĠPolish": 7886,
      "Don": 7887,
      "ĠBatt": 7888,
      "1960": 7889,
      "ĠìĦľë¹ĦìĬ¤": 7890,
      "Ġofficers": 7891,
      "Ġmeeting": 7892,
      "Ġê·¸ëĮĢë¡ľ": 7893,
      "Ġproduce": 7894,
      "Ġdepart": 7895,
      "Ġonline": 7896,
      "Ġíı¬íķ¨íķľ": 7897,
      "Ġëĭ¤ì¹´": 7898,
      "ĠìĿ¼ìĸ´ëĤĺ": 7899,
      "ĠTod": 7900,
      "disambiguation": 7901,
      "ĠBang": 7902,
      "ĠPop": 7903,
      "æ°ı": 7904,
      "Ġult": 7905,
      "Ġcomposed": 7906,
      "PC": 7907,
      "ëªħìľ¼ë¡ľ": 7908,
      "Ġnearby": 7909,
      "ĠìłķìĭĿ": 7910,
      "ĠìĬ¹ê²©": 7911,
      "1984": 7912,
      "Ġproblem": 7913,
      "ube": 7914,
      "Ġ1919": 7915,
      "ouri": 7916,
      "Ġgot": 7917,
      "ĠOs": 7918,
      "Ġpersonnel": 7919,
      "Ġappearances": 7920,
      "çļ": 7921,
      "1979": 7922,
      "ĠAdd": 7923,
      "ĠHead": 7924,
      "ê·¸ë£¹": 7925,
      "ë²łë¥´": 7926,
      "Ġë°ĺëŀĢ": 7927,
      "IV": 7928,
      "Ġdivided": 7929,
      "ĠSS": 7930,
      "ntario": 7931,
      "Ġbr": 7932,
      "ĠCambridge": 7933,
      "ĠëĤĺëĵ¤ëª©": 7934,
      "orporated": 7935,
      "thing": 7936,
      "Ġì¤ĳìļĶ": 7937,
      "ĠMir": 7938,
      "Ġë°ĶëĢĮ": 7939,
      "Ġê³µìŀĳ": 7940,
      "Ġê·ľìłķ": 7941,
      "ìĥģìĹĲ": 7942,
      "Ġpeak": 7943,
      "cting": 7944,
      "Ġë¶ĢìĹ¬": 7945,
      "ĠíĿ¡": 7946,
      "Ġê¹¨": 7947,
      "ĠJoe": 7948,
      "Ġpath": 7949,
      "Ġprovince": 7950,
      "Ġresponsible": 7951,
      "ìĨĮëħĦ": 7952,
      "Ġê·Ģì¡±": 7953,
      "Ġbecomes": 7954,
      "uilding": 7955,
      "net": 7956,
      "ìĦłê±°": 7957,
      "83": 7958,
      "Ġì§ĳíķ©": 7959,
      "íĬ¸ìĽĮíģ¬": 7960,
      "1983": 7961,
      "Ġê¸°ì´Ī": 7962,
      "ĠíĮĮê´´": 7963,
      "91": 7964,
      ")ãĢĭ": 7965,
      "ê°ĢìĿĺ": 7966,
      "Ġraised": 7967,
      "Ġdrug": 7968,
      "ĠConf": 7969,
      "bourne": 7970,
      "hew": 7971,
      "akh": 7972,
      "Ġìĭłë¬¸": 7973,
      "ĠCat": 7974,
      "Ġê²°ìĬ¹": 7975,
      "Ġcommonly": 7976,
      "ëŀĲëĭ¤": 7977,
      "ĠìłľìķĪ": 7978,
      "Ġì¹ł": 7979,
      "ĠHome": 7980,
      "Ġë¹Ħë¡¯íķľ": 7981,
      "ìĭľì½Ķ": 7982,
      "Ġsoftware": 7983,
      "ì²´ëĬĶ": 7984,
      "ëłĪìĿ´ìħĺ": 7985,
      "Ġera": 7986,
      "ìĦłìĿ´": 7987,
      "Ġcultural": 7988,
      "Pop": 7989,
      "ĠìĦ¤ê³Ħ": 7990,
      "ĠÅ": 7991,
      "respond": 7992,
      "ski": 7993,
      "ìľĦê°Ģ": 7994,
      "ĠìĪł": 7995,
      "ĠTurk": 7996,
      "ĠVictoria": 7997,
      "vis": 7998,
      "Ġ1937": 7999,
      "ĠRevolution": 8000,
      "Ġë²ĦìłĦ": 8001,
      "ĠêµŃíļĮ": 8002,
      "ĠMike": 8003,
      "ĠìļĶë¦¬": 8004,
      "ìĿ´ê¸°": 8005,
      "ĠBh": 8006,
      "íĻĶìĿĺ": 8007,
      "Ġëĭ¤ë¥´": 8008,
      "ìĿĺíļĮ": 8009,
      "ĠìĦ±ìŀ¥": 8010,
      "gu": 8011,
      "ĠëħĦ": 8012,
      "ĠAirport": 8013,
      "Ġmodels": 8014,
      "ìĽĲìĹĲìĦľ": 8015,
      "ĠPubl": 8016,
      "ĠFoundation": 8017,
      "ìĹ°íķ©": 8018,
      "ì£¼ìĿĺìŀĲ": 8019,
      "ĠSyd": 8020,
      "ĠĠĊ": 8021,
      "ìĬ¤ìĹĲ": 8022,
      "ĠBell": 8023,
      "ĠíĢ": 8024,
      "get": 8025,
      "AF": 8026,
      "Ġjun": 8027,
      "Ġíı´ëŀĢëĵľ": 8028,
      "ĠJews": 8029,
      "ĠAD": 8030,
      "Ġtypically": 8031,
      "Ġrat": 8032,
      "ĠFar": 8033,
      "Ġìľłëªħíķľ": 8034,
      "part": 8035,
      "Ġê²°íķ©": 8036,
      "Ġë©ĶìĿ´": 8037,
      "ĠPost": 8038,
      "ucky": 8039,
      "Ġì¡´ìŀ¬íķľëĭ¤": 8040,
      "Ġimplement": 8041,
      "Ġidea": 8042,
      "Ġdead": 8043,
      "astic": 8044,
      "ĠìĨĮê°ľ": 8045,
      "ker": 8046,
      "ìĦłìĪĺ": 8047,
      "ë¹Ļ": 8048,
      "ë¦¬ìĹĦ": 8049,
      "Ġìĺ¤ë¸Į": 8050,
      "undred": 8051,
      "ĠìĹ¬ê²¨": 8052,
      "Ġtold": 8053,
      "imal": 8054,
      "Ġdrama": 8055,
      "ìĽĮëĵľ": 8056,
      "Ġneighbor": 8057,
      "ĠìķĦëĤĺ": 8058,
      "ĠëĶ°ë¥¸": 8059,
      "Ġê·¸ëŁ°": 8060,
      "Ġdeliver": 8061,
      "ìĬ¬ëŀĮ": 8062,
      "ĠGovernor": 8063,
      "Ġpick": 8064,
      "ĠBa": 8065,
      "ĠìĿ´ìĻ¸": 8066,
      "ĠGree": 8067,
      "Ġorganizations": 8068,
      "oles": 8069,
      "Ġships": 8070,
      "69": 8071,
      "ë¿Ĳ": 8072,
      "ĠSong": 8073,
      "ë©ĶìĿ´": 8074,
      "Ġquarter": 8075,
      "Ġíĥľìĸ´ëĤ¬ëĭ¤": 8076,
      "Ġbranch": 8077,
      "Ġdescent": 8078,
      "Ġterritory": 8079,
      "arry": 8080,
      "ĠJean": 8081,
      "Ġparents": 8082,
      "Ġëĵ±ìŀ¥ìĿ¸ë¬¼": 8083,
      "een": 8084,
      "ĠJackson": 8085,
      "ĠíķľêµŃìĿĺ": 8086,
      "ET": 8087,
      "ìłķì¹ĺ": 8088,
      "ĠìĿ¸íķľ": 8089,
      "Ġsucceed": 8090,
      "Ġsilver": 8091,
      "cm": 8092,
      "Ġdemon": 8093,
      "å®ī": 8094,
      "ĠJustice": 8095,
      "ìĭ¸": 8096,
      "ëĨĵ": 8097,
      "Ġcars": 8098,
      "ĠJeff": 8099,
      "Ġë§ĪìĤ¬": 8100,
      "ĠìĹ¬ë¦Ħ": 8101,
      "ĠAut": 8102,
      "Hz": 8103,
      "ĠTurkey": 8104,
      "åĬ": 8105,
      "ìĹŃëĮĢ": 8106,
      "ĠìĦ¸ìĽĮ": 8107,
      "Ġreplace": 8108,
      "ears": 8109,
      "zy": 8110,
      "Ġìłķìĭł": 8111,
      "ĠíĺĦìŀ¬ìĿĺ": 8112,
      "Ġexperience": 8113,
      "da": 8114,
      "Ġagric": 8115,
      "ĠëĨĢ": 8116,
      "Ġgun": 8117,
      "yo": 8118,
      "Ġë¶ķ": 8119,
      "Ġassistant": 8120,
      "ĠAM": 8121,
      "formed": 8122,
      "ĠìĦ¤ë¦½ëĲľ": 8123,
      "ĠìľĪëıĦìļ°": 8124,
      "ogue": 8125,
      "Ġfacilities": 8126,
      "ë¨¼íĬ¸": 8127,
      "ĠOffice": 8128,
      "ador": 8129,
      "ĠKong": 8130,
      "ĠíĮĮê²¬": 8131,
      "ĠProgram": 8132,
      "Ġëĭ¬ëŁ¬": 8133,
      "ĠSa": 8134,
      "ìĨĮëĬĶ": 8135,
      "êµ°ê³¼": 8136,
      "ĠíļĮìĽĲ": 8137,
      "Ġê°Ĵ": 8138,
      "ê°ľìļĶ": 8139,
      "ìĭľë¦¬ì¦Ī": 8140,
      "Ġregional": 8141,
      "Ġìºł": 8142,
      "ibli": 8143,
      "íķŃê³µ": 8144,
      "Ġ1914": 8145,
      "ĠLight": 8146,
      "ĠìĭľíĹĺ": 8147,
      "Ġbasis": 8148,
      "language": 8149,
      "ĠAC": 8150,
      "Ġê²½ìŁģ": 8151,
      "Ġdisplay": 8152,
      "ìĨĶ": 8153,
      "ĠìĺģìĹħ": 8154,
      "ima": 8155,
      "ĠìķĦíĶĦë¦¬ì¹´": 8156,
      "class": 8157,
      "ì¶ľìĹ°": 8158,
      "Ġê°ĸê³ł": 8159,
      "Ġcat": 8160,
      "ìľĦëĬĶ": 8161,
      "One": 8162,
      "file": 8163,
      "ĠìĬµ": 8164,
      "Ġour": 8165,
      "anced": 8166,
      "olitan": 8167,
      "1982": 8168,
      "êµ¬ëĬĶ": 8169,
      "rolled": 8170,
      "Ġmentioned": 8171,
      "ĠíĮ¨ë°°": 8172,
      "Ġë°ĿíĺĶëĭ¤": 8173,
      "Ġserve": 8174,
      "vest": 8175,
      "ĠKenn": 8176,
      "mas": 8177,
      "Ġvs": 8178,
      "Ġì£¼ëıĦ": 8179,
      "Ġì¢ħíķ©": 8180,
      "Ġfeaturing": 8181,
      "ji": 8182,
      "ĠVen": 8183,
      "Ġacademic": 8184,
      "ĠãĢİ": 8185,
      "Ġìĥģì§ķ": 8186,
      "Ġdirection": 8187,
      "ëĲĺìĹĪìľ¼ëĤĺ": 8188,
      "Ġíķ´ê²°": 8189,
      "81": 8190,
      "Ġcovered": 8191,
      "ortheast": 8192,
      "uts": 8193,
      "Ġsmaller": 8194,
      "ĠAsh": 8195,
      "ì´ī": 8196,
      "Ġë§Īì°¬": 8197,
      "Ã¡n": 8198,
      "ĠBaseball": 8199,
      "Ġstay": 8200,
      "åħĥ": 8201,
      "Ġthr": 8202,
      "Ġcoaches": 8203,
      "Ġì¤ĳëĭ¨": 8204,
      "inson": 8205,
      "Ġê²ĥìĿ´ìĹĪëĭ¤": 8206,
      "ĠíĺĪ": 8207,
      "ĠìĹ¬íĸī": 8208,
      "Ġ1935": 8209,
      "Ã±": 8210,
      "Ġì´ī": 8211,
      "ìĭľë¡ľ": 8212,
      "ĠCharl": 8213,
      "Ġcontinue": 8214,
      "Ġasked": 8215,
      "Ġast": 8216,
      "ĠProject": 8217,
      "Ġhighly": 8218,
      "ĠLu": 8219,
      "Ġì§ĢìĹŃìĿĺ": 8220,
      "ĠPen": 8221,
      "ĠìłľëıĦ": 8222,
      "ĠìĬ¤íħĮ": 8223,
      "ê¶ĮìĿĺ": 8224,
      "ez": 8225,
      "Ġaddress": 8226,
      "Ġmm": 8227,
      "ĠRome": 8228,
      "emet": 8229,
      "Ġê²½íĹĺ": 8230,
      "Ġë¶Ģìłķ": 8231,
      "ĠHighway": 8232,
      "Ġcard": 8233,
      "Ġíķ´ìĻ¸": 8234,
      "US": 8235,
      "ĠÂ£": 8236,
      "ĠChap": 8237,
      "ictional": 8238,
      "ĠìĤ¬ëŀĮëĵ¤ìĿ´": 8239,
      "Ġë°Ķëĭ¤": 8240,
      "ì§ĢëıĦ": 8241,
      "ĠRaj": 8242,
      "ivity": 8243,
      "World": 8244,
      "ĠìķĦë§Ī": 8245,
      "Ġsubs": 8246,
      "Ġconstructed": 8247,
      "ĠëıĻë§¹": 8248,
      "2021": 8249,
      "Ġíİ¼": 8250,
      "ĠìĥĿìĦ±": 8251,
      "Ġdraft": 8252,
      "ëª»": 8253,
      "æł": 8254,
      "Ġëĭ¬ìĦ±": 8255,
      "åĭ": 8256,
      "enty": 8257,
      "Ġcampus": 8258,
      "pon": 8259,
      "opher": 8260,
      "Ġstudied": 8261,
      "Ġìłĳê·¼": 8262,
      "ĠCa": 8263,
      "Ġstories": 8264,
      "ĠLive": 8265,
      "ç«": 8266,
      "ĠìĿ´ëĵ¤": 8267,
      "Ġëª»íĸĪëĭ¤": 8268,
      "Ġhospital": 8269,
      "ĠDirector": 8270,
      "ĠOntario": 8271,
      "ĠPoland": 8272,
      "Ġê°Ģë¥´": 8273,
      "Ġê³łêµ¬ëł¤": 8274,
      "LA": 8275,
      "ìĤ¬ìłĦ": 8276,
      "ĠëĤ¨ë¶Ģ": 8277,
      "ë¡ľë¥¼": 8278,
      "íķĻìĿĦ": 8279,
      "ĠTam": 8280,
      "íĪ¬ëĭĪë²ĦìĬ¤": 8281,
      "Ġ37": 8282,
      "Ġwidely": 8283,
      "Ġê²½ëł¥": 8284,
      "Ġconcent": 8285,
      "Ġsched": 8286,
      "ĠëĤĺë¨¸": 8287,
      "Ġrugby": 8288,
      "Ġliterature": 8289,
      "yric": 8290,
      "Ġawards": 8291,
      "Ġbehav": 8292,
      "bra": 8293,
      "ìĪĺíķľ": 8294,
      "ëĭĪìĬ¤": 8295,
      "Ġelectric": 8296,
      "Nov": 8297,
      "Austral": 8298,
      "Ġë°ĿíĺĢ": 8299,
      "Ġê³¼ìłķìĹĲìĦľ": 8300,
      "yt": 8301,
      "Ġë¶ĦìĦĿ": 8302,
      "ĠFer": 8303,
      "Ġability": 8304,
      "Ġhosted": 8305,
      "ĠOrgan": 8306,
      "Ġheart": 8307,
      "Ġ64": 8308,
      "Ġë°Ķê¾¸": 8309,
      "Ġface": 8310,
      "ĠSydney": 8311,
      "Ġplants": 8312,
      "ĠìĿĢíĩ´": 8313,
      "ĠBoth": 8314,
      "Ġcapacity": 8315,
      "Ġletter": 8316,
      "ìĺ¤ëĬĶ": 8317,
      "Ġremoved": 8318,
      "Pr": 8319,
      "ĠBon": 8320,
      "Ġprin": 8321,
      "ì§Ģê²Į": 8322,
      "eman": 8323,
      "ĠCorporation": 8324,
      "Ġë¬¸ìŀĲ": 8325,
      "Ġmarriage": 8326,
      "Ġlif": 8327,
      "ption": 8328,
      "ì£¼ë¥¼": 8329,
      "Ġprogress": 8330,
      "ĠìķĬëĭ¤": 8331,
      "ĠWilson": 8332,
      "Ġshare": 8333,
      "Ġphysical": 8334,
      "Ġwanted": 8335,
      "Ġscene": 8336,
      "span": 8337,
      "ĠìķĻ": 8338,
      "ìĽĶë¶ĢíĦ°": 8339,
      "itage": 8340,
      "ëĥ¥": 8341,
      "ĠSI": 8342,
      "urd": 8343,
      "ê²½ìĿĦ": 8344,
      "Ġassociation": 8345,
      "Ġíİ¸ìŀħ": 8346,
      "weg": 8347,
      "inity": 8348,
      "ë±": 8349,
      "ëŁīìĿĦ": 8350,
      "rate": 8351,
      "íķĺìĺĢëĬĶëį°": 8352,
      ".âĢĿ": 8353,
      "ëĲĺê¸°ëıĦ": 8354,
      "ĠSerb": 8355,
      "ê³łë¥¼": 8356,
      "84": 8357,
      "èª": 8358,
      "Ġindividuals": 8359,
      "ĠDevelopment": 8360,
      "aylor": 8361,
      "Ġcontrovers": 8362,
      "ë´": 8363,
      "ë¡±": 8364,
      "wick": 8365,
      "erc": 8366,
      "ìĿ´ì¹ĺ": 8367,
      "odies": 8368,
      "Ġintended": 8369,
      "åİ": 8370,
      "Ġmusicians": 8371,
      "Ġì§Ģíķĺì²ł": 8372,
      "una": 8373,
      "ë°ĸ": 8374,
      "Ġë°©ìĺģ": 8375,
      "Ne": 8376,
      "ĠëĤ¨ë¶ģ": 8377,
      "asty": 8378,
      "Ġstrateg": 8379,
      "ê³łìĨįëıĦë¡ľ": 8380,
      "ĠìĿĺíķĺë©´": 8381,
      "íĶĪ": 8382,
      "Ġ1933": 8383,
      "ìļ°ëĬĶ": 8384,
      "Ð¾Ð": 8385,
      "ê°Ģì§Ģë¡ľ": 8386,
      "Ġìĥģíĺ¸": 8387,
      "ĠLi": 8388,
      "ĠìľłëĮĢ": 8389,
      "ĠëıĦì°©": 8390,
      "ĠUN": 8391,
      "Ġgas": 8392,
      "orph": 8393,
      "íĨłë¦¬": 8394,
      "ìĥģìľ¼ë¡ľ": 8395,
      "Ġê°Ģìŀħ": 8396,
      "ieuten": 8397,
      "bs": 8398,
      "ĠColor": 8399,
      "Ġê°Ģìłķ": 8400,
      "ê°Ģë¥¼": 8401,
      "agon": 8402,
      "Ġê´Ģê´ĳ": 8403,
      "Ġmanaged": 8404,
      "íķĻëħĦ": 8405,
      "Ġissued": 8406,
      "ĠNorway": 8407,
      "Ġë¸ĮëĿ¼ì§Ī": 8408,
      "ìĤ¬ëĭ¨": 8409,
      "Ġchart": 8410,
      "Ġscholars": 8411,
      "Ġë¶Īë¦¬ëĬĶ": 8412,
      "Ġ1929": 8413,
      "arp": 8414,
      "ì¤ĳêµŃ": 8415,
      "ĠìĹ¬ê°Ŀ": 8416,
      "ternet": 8417,
      "Ġarchitect": 8418,
      "Ġenem": 8419,
      "Ġofficially": 8420,
      "which": 8421,
      "Ġê·¼ê±°": 8422,
      "Ġsusp": 8423,
      "force": 8424,
      "ê¸°ëħĲ": 8425,
      "Ġë¶ĢìĿ¸": 8426,
      "Ġë³µê·Ģ": 8427,
      "ĠìĦ±ê²©": 8428,
      "Ġupper": 8429,
      "ĠOpen": 8430,
      "Ġuns": 8431,
      "Ġnation": 8432,
      "ĠForest": 8433,
      "worth": 8434,
      "usband": 8435,
      "Comp": 8436,
      "itzer": 8437,
      "ĠSteve": 8438,
      "Ġcolor": 8439,
      "Ġìŀĳê³¡ê°Ģ": 8440,
      "ocated": 8441,
      "ĠíıīíĻĶ": 8442,
      "Ġpotential": 8443,
      "Ġë°ľìĤ¬": 8444,
      "%,": 8445,
      "Ġnotable": 8446,
      "ìĭĿìĿĺ": 8447,
      "ì»¨": 8448,
      "è»": 8449,
      "ĠRem": 8450,
      "ansion": 8451,
      "Ġë¹ĦìĬ·íķľ": 8452,
      "ners": 8453,
      "oli": 8454,
      "ĠìĦ¸íı¬": 8455,
      "rog": 8456,
      "Ġcomes": 8457,
      "enness": 8458,
      "Ġquestion": 8459,
      "ĠìľĦíĹĺ": 8460,
      "Be": 8461,
      "Ġdial": 8462,
      "Ġê°Ģìł¸": 8463,
      "ê´ĢìĿ´": 8464,
      "ĠFamily": 8465,
      "Ġë§ĮìĹĲ": 8466,
      "etherlands": 8467,
      "rical": 8468,
      "Ġê·¸ëĵ¤ìĿĢ": 8469,
      "place": 8470,
      "ë¡ľê·¸": 8471,
      "Ġfriends": 8472,
      "ĠArmen": 8473,
      "igen": 8474,
      "ĠArgent": 8475,
      "íĪ": 8476,
      "Ġê²ª": 8477,
      "Ġcounter": 8478,
      "Ġslow": 8479,
      "Ġblue": 8480,
      "ÅŁ": 8481,
      "Ġë§ĪìĿ´íģ¬ë¡ľ": 8482,
      "ĠTony": 8483,
      "ìĹŃìľ¼ë¡ľ": 8484,
      "ĠIraq": 8485,
      "ulpt": 8486,
      "Ġì²ĺë¦¬": 8487,
      "estab": 8488,
      "Ġ1922": 8489,
      "Ġëª½ê³¨": 8490,
      "Ġtable": 8491,
      "uting": 8492,
      "icine": 8493,
      "ĠHan": 8494,
      "ëĿ¼ëħ¸": 8495,
      "Ġhonor": 8496,
      "ìŀĦìĬ¤": 8497,
      "Ġut": 8498,
      "Ġnative": 8499,
      "perial": 8500,
      "Ġyet": 8501,
      "Ġëĭ¨ìĪľ": 8502,
      "ì£½": 8503,
      "osophy": 8504,
      "ë¬´ëĿ¼": 8505,
      "ĠìĿ´ì§ĳ": 8506,
      "Ġsecurity": 8507,
      "æĸ°": 8508,
      "Ġdestroyed": 8509,
      "Ġëĭ¤ë§Į": 8510,
      "Ġsites": 8511,
      "ĠSupreme": 8512,
      "Ġì§ģíĽĦ": 8513,
      "AD": 8514,
      "met": 8515,
      "ancy": 8516,
      "ĠRam": 8517,
      "Ġ1910": 8518,
      "ì§ĢìĹĲìĦľ": 8519,
      "Ġëĵ¤ìĸ´ê°Ģ": 8520,
      "Ġë¨¼ìłĢ": 8521,
      "Ġìĩ": 8522,
      "ê°ĲìĿĦ": 8523,
      "ìŀ¥ê³¼": 8524,
      "ĠìľłëĭĪ": 8525,
      "ì°¨ìłĦ": 8526,
      "Ġequipment": 8527,
      "ìĭľì¦Į": 8528,
      "Ġanalysis": 8529,
      "usc": 8530,
      "Ġsport": 8531,
      "êµŃìĿ´": 8532,
      "Ġë¶Ģë¥¸ëĭ¤": 8533,
      "Ġë§ĪìĿĮ": 8534,
      "According": 8535,
      "izes": 8536,
      "Ġìŀĳìļ©": 8537,
      "Ġë¶Ħíı¬": 8538,
      "ĠFederal": 8539,
      "ĠëĤ¨ìª½": 8540,
      "ĠWork": 8541,
      "Ġê°ľíİ¸": 8542,
      "Ġ1932": 8543,
      "Ġquickly": 8544,
      "ĠìŀħíķĻ": 8545,
      "Ġadministration": 8546,
      "Ġadopted": 8547,
      "Ġì§ĢìĹŃìĹĲ": 8548,
      "87": 8549,
      "ĠKir": 8550,
      "ĠLev": 8551,
      "Ġrepe": 8552,
      "Ġalongside": 8553,
      "Ġì±ĦëĦĲ": 8554,
      "ĠKen": 8555,
      "Ġë°°ì¹ĺ": 8556,
      "Ġpaper": 8557,
      "Ġolder": 8558,
      "ë¥´ê³ł": 8559,
      "Ġexecutive": 8560,
      "Ġsettlement": 8561,
      "Ġì£¼ìĿĺ": 8562,
      "ione": 8563,
      "ĠFe": 8564,
      "Ġbelong": 8565,
      "ĠRepublican": 8566,
      "ĠNetwork": 8567,
      "olved": 8568,
      "duce": 8569,
      "ĠEP": 8570,
      "ĠUk": 8571,
      "ĠìŀĪëıĦë¡Ŀ": 8572,
      "Ġ42": 8573,
      "ìĭłìĿĺ": 8574,
      "82": 8575,
      "Ac": 8576,
      "ĠAh": 8577,
      "íķĻìĿĺ": 8578,
      "ìłķìĿĢ": 8579,
      "ä¸ī": 8580,
      "Ġtreatment": 8581,
      "ĠìķĦì¹´": 8582,
      "ë©´ìĿĦ": 8583,
      "ëĵ¬íķ´": 8584,
      "Rail": 8585,
      "Ġì¹´ë¥¼": 8586,
      "inus": 8587,
      "ìĿ¸ì§Ģ": 8588,
      "ìĥĿíĻľ": 8589,
      "Ġplanned": 8590,
      "Ġê¸Īì§Ģ": 8591,
      "portun": 8592,
      "ĠTechnology": 8593,
      "ë¥´íĪ¬ê°Ī": 8594,
      "Ġinside": 8595,
      "ĠBat": 8596,
      "Ġstreng": 8597,
      "Ġoperating": 8598,
      "Ġdedicated": 8599,
      "íķĳ": 8600,
      "Ġearned": 8601,
      "Ġpal": 8602,
      "ila": 8603,
      "ìĸ´ì§Ħëĭ¤": 8604,
      "ì£¼ìļĶ": 8605,
      "yal": 8606,
      "ĠìķĦìĭľìķĪ": 8607,
      "ilton": 8608,
      "ĠBol": 8609,
      "ĠCommunity": 8610,
      "ĠìľĦíķ´ìĦľ": 8611,
      "By": 8612,
      "Ġfamilies": 8613,
      "ixed": 8614,
      "ëªĩ": 8615,
      "ĠëĶĶìŀĲìĿ¸": 8616,
      "Ġpresence": 8617,
      "ë¸": 8618,
      "ì§ĵ": 8619,
      "íģ¬ìĿĺ": 8620,
      "ëł¥ìĿĺ": 8621,
      "Ġìŀĩ": 8622,
      "ĠSK": 8623,
      "osh": 8624,
      "ĠTal": 8625,
      "Members": 8626,
      "Ġrecon": 8627,
      "Ġcounty": 8628,
      "Ġ1000": 8629,
      "occer": 8630,
      "Ġimpact": 8631,
      "Ġcombined": 8632,
      "iced": 8633,
      "ĠìĿ´ê³³": 8634,
      "ëŁīìĿĢ": 8635,
      "ĠíĸīëıĻ": 8636,
      "Ġì²´íı¬": 8637,
      "ĠìĿ´ìłģ": 8638,
      "Ġcells": 8639,
      "Ġsplit": 8640,
      "And": 8641,
      "ëĭ¤ìĿ´": 8642,
      "æľĿ": 8643,
      "ĠíĺĦìŀ¬ëĬĶ": 8644,
      "ĠAnth": 8645,
      "ëĭ¤ë¥¸": 8646,
      "ë¯¸ëĦĲ": 8647,
      "Ġê³ĦìĤ°": 8648,
      "Ġelections": 8649,
      "Ġlargely": 8650,
      "present": 8651,
      "Ġpaint": 8652,
      "Ġinters": 8653,
      "Ġprec": 8654,
      "orter": 8655,
      "Ġêµ°ì£¼": 8656,
      "ĠëĮĢíķ´ìĦľ": 8657,
      "Ġ1934": 8658,
      "ĠColl": 8659,
      "íķĺëĭ¤ê°Ģ": 8660,
      "ìĤ¬íĤ¤": 8661,
      "ĠJunior": 8662,
      "ĠBad": 8663,
      "izabeth": 8664,
      "ĠLady": 8665,
      "ĠìĥĿë¬¼": 8666,
      "Ġversions": 8667,
      "ë¶Īìĸ´": 8668,
      "ĠMedal": 8669,
      "Ġtherefore": 8670,
      "Ġëª¬": 8671,
      "Ġfifth": 8672,
      "èģ": 8673,
      "ĠìĭľëĮĢìĿĺ": 8674,
      "Ġtarget": 8675,
      "Ġleaders": 8676,
      "ĠQueens": 8677,
      "Ġneeded": 8678,
      "Ġworkers": 8679,
      "Ġê´Ģë£Į": 8680,
      "Ġimmediately": 8681,
      "Ġ1921": 8682,
      "wealth": 8683,
      "ĠNFL": 8684,
      "ĠStand": 8685,
      "Ġtrains": 8686,
      "Ġparties": 8687,
      "Ġlives": 8688,
      "Ġchap": 8689,
      "Ġcitizens": 8690,
      "ìŀĲìĹĲ": 8691,
      "Ġì§§": 8692,
      "Ġresidents": 8693,
      "Ġê²ĥê³¼": 8694,
      "ìĭĿìĿĢ": 8695,
      "1974": 8696,
      "Ġcontinues": 8697,
      "Ġgod": 8698,
      "Ġ1931": 8699,
      "Ġestimated": 8700,
      "ìĽ¨ëį´": 8701,
      "Ġextra": 8702,
      "Ġpeace": 8703,
      "ĠìĽ¹ìĤ¬ìĿ´íĬ¸": 8704,
      "cluding": 8705,
      "æĺİ": 8706,
      "Ġê·¼ì²ĺ": 8707,
      "Ġathlet": 8708,
      "ĠíķĺëĤĺìĿ´ëĭ¤": 8709,
      "Ġcorrespond": 8710,
      "rizona": 8711,
      "anth": 8712,
      "oration": 8713,
      "OV": 8714,
      "íĬ¸ê°Ģ": 8715,
      "íĬ¸ëĿ¼": 8716,
      "ë·°": 8717,
      "Ġ1928": 8718,
      "ĠHockey": 8719,
      "Ġcontact": 8720,
      "ĠFox": 8721,
      "1945": 8722,
      "ĠBishop": 8723,
      "ìĬ¤íİĺ": 8724,
      "ëªħíķľ": 8725,
      "aging": 8726,
      "ifying": 8727,
      "ìĭľê°Ģ": 8728,
      "ieutenant": 8729,
      "Ġê¹Ģìĺģ": 8730,
      "ĠSu": 8731,
      "Ġ1900": 8732,
      "unc": 8733,
      "Ġarrived": 8734,
      "1978": 8735,
      "ĠìĬ¤ìľĦ": 8736,
      "ĠCzech": 8737,
      "May": 8738,
      "1976": 8739,
      "ĠìĿ¸êµ¬ëĬĶ": 8740,
      "ëį¤": 8741,
      "Ġcle": 8742,
      "ilation": 8743,
      "Ġë¹ħ": 8744,
      "Ġstore": 8745,
      "Ġbegins": 8746,
      "ĠìĤ¬ìļ©íķł": 8747,
      "Ġamb": 8748,
      "æĶ": 8749,
      "quarters": 8750,
      "Ġtransferred": 8751,
      "Ġmissing": 8752,
      "êµ¬ìĹĲ": 8753,
      "ĠMS": 8754,
      "ìĿ¸ëĵ¤ìĿ´": 8755,
      "ĠìłĦëĭ¬": 8756,
      "Ġinstitutions": 8757,
      "ĠJon": 8758,
      "iated": 8759,
      "Ġec": 8760,
      "Ġë¶ģìª½": 8761,
      "Ġnuclear": 8762,
      "Ġdark": 8763,
      "ĠLes": 8764,
      "ĠìłĦíĻĺ": 8765,
      "Ġmotor": 8766,
      "ging": 8767,
      "Ġfish": 8768,
      "Ġë¹Ħë°Ģ": 8769,
      "ëĭ¨ì²´": 8770,
      "ĠNations": 8771,
      "1973": 8772,
      "å¸Ŀ": 8773,
      "Ġdance": 8774,
      "ression": 8775,
      "Ġê°ĢëĬ¥íķĺëĭ¤": 8776,
      "aling": 8777,
      "Ġìĺ¤ë¥¸": 8778,
      "ĠìĬ¹ê°ķ": 8779,
      "ëĥĪ": 8780,
      "ê³µìĹħ": 8781,
      "ĠìľĦìĹĲ": 8782,
      "ĠìĪ¨": 8783,
      "Ã¼r": 8784,
      "Comm": 8785,
      "Ġê²½ìļ°ìĹĲëĬĶ": 8786,
      "ĠHistoric": 8787,
      "uls": 8788,
      "ëŁ¬ìĭľìķĦ": 8789,
      "ãĥ³": 8790,
      "ĠìľĮë¦¬ìĹĦ": 8791,
      "Ġstra": 8792,
      "Ġdisease": 8793,
      "mad": 8794,
      "oto": 8795,
      "agh": 8796,
      "Ġvan": 8797,
      "AP": 8798,
      "Ġwithd": 8799,
      "ĠëģĿìĹĲ": 8800,
      "ĠíĸīìĦ±": 8801,
      "alo": 8802,
      "Ġê³ĦìĬ¹": 8803,
      "Ġë¡¯": 8804,
      "ì¿łëĿ¼": 8805,
      "ĠDemocratic": 8806,
      "Ġsens": 8807,
      "ĠEconom": 8808,
      "ĠíķĺëĤĺë¡ľ": 8809,
      "Ġê°ķìĽĲ": 8810,
      "íģ¬ëĿ¼": 8811,
      "ibly": 8812,
      "ëĶĶìķĦ": 8813,
      "ĠíĮĮìĿ´": 8814,
      "Ġì¤Ģë¹Ħ": 8815,
      "ìĦľê´Ģ": 8816,
      "ĠìĭłìĦ¤": 8817,
      "íĶĦë¦¬": 8818,
      "Ġassigned": 8819,
      "Ġsaying": 8820,
      "ĠRegiment": 8821,
      "ĠBarb": 8822,
      "Ġfollows": 8823,
      "Ġactivity": 8824,
      "ĠMedia": 8825,
      "ĠNetherlands": 8826,
      "ë¯¸ìķ¼": 8827,
      "ĠìĭĿë¬¼": 8828,
      "sey": 8829,
      "rence": 8830,
      "ropolitan": 8831,
      "Ġcorn": 8832,
      "Ġperman": 8833,
      "rade": 8834,
      "Ġregions": 8835,
      "aks": 8836,
      "Ġrare": 8837,
      "itled": 8838,
      "ĠìŀĪê¸°": 8839,
      "Ġdistinct": 8840,
      "Ġlay": 8841,
      "ĠìĿ¼ìĿĦ": 8842,
      "Ġfigure": 8843,
      "Ġìłľìĭľ": 8844,
      "ĠìĿĺíļĮ": 8845,
      "Ġaim": 8846,
      "ëĵĢ": 8847,
      "pton": 8848,
      "Ġë°ĶëŀĮ": 8849,
      "ecause": 8850,
      "Ġëªħëĭ¨": 8851,
      "ĠìĭľëıĦ": 8852,
      "Ġë§ĲíĸĪëĭ¤": 8853,
      "Ġë²łíĬ¸ëĤ¨": 8854,
      "ĠRet": 8855,
      "ĠDuke": 8856,
      "Ġcontra": 8857,
      "1972": 8858,
      "ĠCountry": 8859,
      "Ġordered": 8860,
      "yes": 8861,
      "Ġtitles": 8862,
      "Ġsolo": 8863,
      "aph": 8864,
      "ĠëĤ´ë¶Ģ": 8865,
      "ĠFire": 8866,
      "¬ìĺģ": 8867,
      "Ġlies": 8868,
      "ìĤ¬ëŀĳ": 8869,
      "ĠPhilipp": 8870,
      "Ð¸Ð": 8871,
      "ĠëŁ°ëįĺ": 8872,
      "ething": 8873,
      "ĠBooks": 8874,
      "ĠìĪĺìļ©": 8875,
      "Ġcompared": 8876,
      "Ġconducted": 8877,
      "ctors": 8878,
      "Ġthink": 8879,
      "Personal": 8880,
      "Ġdistance": 8881,
      "íĻĶëĲľ": 8882,
      "ĠSanta": 8883,
      "ĠìĿ´ì£¼": 8884,
      "ì¡Įê³ł": 8885,
      "cest": 8886,
      "ĠRod": 8887,
      "Ġwinners": 8888,
      "ĠTrust": 8889,
      "åī": 8890,
      "Ġ1924": 8891,
      "Ġ1923": 8892,
      "ë§ĪìĿ´": 8893,
      "Ġetc": 8894,
      "ĠAnother": 8895,
      "Ġnovels": 8896,
      "Ġindustrial": 8897,
      "ĠíĮĮìĿ¼": 8898,
      "Ġcannot": 8899,
      "Ġillust": 8900,
      "ìĸ´ëĤĺ": 8901,
      "Ġ1927": 8902,
      "Ġtowns": 8903,
      "Ġsemi": 8904,
      "aped": 8905,
      "Ġrecover": 8906,
      "andon": 8907,
      "ĠìĪĺë§İìĿĢ": 8908,
      "His": 8909,
      "Ġë°©ìĨ¡êµŃ": 8910,
      "ĠìĻĦìĦ±": 8911,
      "ĠHong": 8912,
      "ĠLewis": 8913,
      "Ġhighway": 8914,
      "Ġpra": 8915,
      "Ġcerem": 8916,
      "ĠBrig": 8917,
      "Ġattract": 8918,
      "Ġìŀ¬íĮĲ": 8919,
      "è¥": 8920,
      "Ġhusband": 8921,
      "ĠStat": 8922,
      "å¹³": 8923,
      "Ġvari": 8924,
      "EN": 8925,
      "ĠëĤ´ê°ģ": 8926,
      "ĠPremier": 8927,
      "ĺë¦¬": 8928,
      "ê¸°ìĹħ": 8929,
      "Ġ1917": 8930,
      "ĠìĦ¸ìĿ´": 8931,
      "German": 8932,
      "anga": 8933,
      "Ġrow": 8934,
      "ìĿ¸ë¯¼ê³µíĻĶêµŃìĿĺ": 8935,
      "Ġprofessor": 8936,
      "Ġìĭ¤íĸī": 8937,
      "åĮĹ": 8938,
      "Ġë¯¸ëĭĪ": 8939,
      "ëħĦìĿĦ": 8940,
      "ĠìĿ´ìĬ¬ëŀĮ": 8941,
      "ĠDar": 8942,
      "amber": 8943,
      "Ġìľłë¡ľ": 8944,
      "ĠíĻĢ": 8945,
      "ĠíļĮìĿĺ": 8946,
      "Ġflight": 8947,
      "Ġgraph": 8948,
      "ĠìŀĪìĹĪê³ł": 8949,
      "ĠStudies": 8950,
      "Ġagreed": 8951,
      "Men": 8952,
      "ĲìĿĺ": 8953,
      "ĠìķĦëĤ´": 8954,
      "ĠCop": 8955,
      "ĠëĤĺë¬´": 8956,
      "fort": 8957,
      "áĨŀáĨ": 8958,
      "ĠìĹ°ê·¹": 8959,
      "Ġprobably": 8960,
      "ìĥģìĿĢ": 8961,
      "innes": 8962,
      "íĨµìĭł": 8963,
      "Ġmountain": 8964,
      "ëĺĲíķľ": 8965,
      "Ġinstrument": 8966,
      "oln": 8967,
      "Ġresulting": 8968,
      "Ġìĭ¶": 8969,
      "ĠDaniel": 8970,
      "Ġìª½": 8971,
      "ĠìĤ¬ìļ©ëĲľëĭ¤": 8972,
      "åĽ": 8973,
      "ĠToronto": 8974,
      "ĠNaz": 8975,
      "athan": 8976,
      "Ġíģ´ëŀĺ": 8977,
      "ED": 8978,
      "èĢ": 8979,
      "ĠíļįëĵĿ": 8980,
      "ë°Ľìķĺëĭ¤": 8981,
      "Ġcoin": 8982,
      "ĠCroat": 8983,
      "Ġrespectively": 8984,
      "çĲ": 8985,
      "ĠEs": 8986,
      "ëŀĺíĶĦíĬ¸": 8987,
      "íķĺê¸°ë¡ľ": 8988,
      "ë°°ìļ°": 8989,
      "ë¹ł": 8990,
      "ĠëĮĢíĳľìłģìĿ¸": 8991,
      "ê°ľë°ľ": 8992,
      "Ġgiving": 8993,
      "ĠStadium": 8994,
      "Ġíĺľ": 8995,
      "Ġreach": 8996,
      "Ġox": 8997,
      "see": 8998,
      "ê°ĻìĿĢ": 8999,
      "ML": 9000,
      "Ŀê°Ģ": 9001,
      "ëĵľê°Ģ": 9002,
      "ennessee": 9003,
      "ographic": 9004,
      "ìĿ¼ìłľ": 9005,
      "ĠIS": 9006,
      "amin": 9007,
      "Ġgreater": 9008,
      "æī": 9009,
      "é»": 9010,
      "ĠBall": 9011,
      "ĠAlso": 9012,
      "Ġfellow": 9013,
      "Ġìłľê¸°": 9014,
      "ĠëĬĶ": 9015,
      "Polit": 9016,
      "acter": 9017,
      "ĠíĶĦëłĪ": 9018,
      "Ġsecondary": 9019,
      "emetery": 9020,
      "ĠForm": 9021,
      "Ġì¤ĳêµŃìĿĺ": 9022,
      "ĠìĤ´íķ´": 9023,
      "found": 9024,
      "Ġbig": 9025,
      "Ġrevealed": 9026,
      "urches": 9027,
      "Ġattend": 9028,
      "Ġê¾¸": 9029,
      "íĺķìĿĺ": 9030,
      "Ġfast": 9031,
      "Ġgrew": 9032,
      "Ġíĺķíĥľë¡ľ": 9033,
      "ĠëĮĢë¥Ļ": 9034,
      "Ġpun": 9035,
      "ĠFollowing": 9036,
      "Ġfavor": 9037,
      "Ġtree": 9038,
      "Ġíķ´ìķĪ": 9039,
      "ĠIndepend": 9040,
      "Ġë¿": 9041,
      "Ġmicro": 9042,
      "ooth": 9043,
      "åħ¬": 9044,
      "Ġsac": 9045,
      "Ġspirit": 9046,
      "ëŁīìĿĺ": 9047,
      "ĠDNA": 9048,
      "We": 9049,
      "ĠAtt": 9050,
      "ķìĭľì½Ķ": 9051,
      "Ġresulted": 9052,
      "ĠìĿ´ëĵ¬íķ´": 9053,
      "Ġgreen": 9054,
      "Ġëĵ£": 9055,
      "ìĻķìĿĺ": 9056,
      "Ġcharge": 9057,
      "gar": 9058,
      "Ã£": 9059,
      "Ġì£Ħ": 9060,
      "Ġactually": 9061,
      "Ġìĺ¤ìĬ¤íĬ¸ë¦¬ìķĦ": 9062,
      "Ġwalk": 9063,
      "ëıĦìĻĢ": 9064,
      "ĠEst": 9065,
      "ĠAnton": 9066,
      "1977": 9067,
      "ìī¬": 9068,
      "bed": 9069,
      "Ġreduced": 9070,
      "innesota": 9071,
      "ĠSus": 9072,
      "Ġpurchased": 9073,
      "Ġexpanded": 9074,
      "ĠIndiana": 9075,
      "Ġopportun": 9076,
      "íĶ¼ìķĦ": 9077,
      "ìĨĮíĶĦíĬ¸": 9078,
      "ê°Ħëĭ¤": 9079,
      "Ġ*": 9080,
      "Ġpet": 9081,
      "oting": 9082,
      "ĠíĬ¹ìłķ": 9083,
      "book": 9084,
      "lers": 9085,
      "Ġbal": 9086,
      "olid": 9087,
      "water": 9088,
      "ĠEarl": 9089,
      "æ±": 9090,
      "ĠìĿĦ": 9091,
      "Ġìłķì¹ĺìłģ": 9092,
      "ĠHoly": 9093,
      "ëĭ¨ìĿ´": 9094,
      "Ġfeel": 9095,
      "ĠDespite": 9096,
      "iot": 9097,
      "Ġ150": 9098,
      "Ġpromoted": 9099,
      "Ġpressure": 9100,
      "Ġprominent": 9101,
      "ë¯¼ì£¼ëĭ¹": 9102,
      "Ġparish": 9103,
      "Ġagreement": 9104,
      "ĠìłģìĿ´": 9105,
      "ìłķì±ħ": 9106,
      "Ġ1926": 9107,
      "ĠMax": 9108,
      "ĠìĿ´ë¦ĦìĿ´": 9109,
      "Ġwa": 9110,
      "ĠíĶ¼ìķĦ": 9111,
      "Ġdefin": 9112,
      "ĠBaron": 9113,
      "Ġìĸ¼ë§Ī": 9114,
      "ĠAlf": 9115,
      "Ġíı°": 9116,
      "Ġformation": 9117,
      "ëĲĺìŀĲ": 9118,
      "ê³Ħê°Ģ": 9119,
      "Ġenter": 9120,
      "ĠìķĦëĭĪëĭ¤": 9121,
      "ES": 9122,
      "ĠìĿ´ìĬ¤": 9123,
      "ĠìĺģìĹŃ": 9124,
      "osis": 9125,
      "ìĭłêµĲ": 9126,
      "greg": 9127,
      "Ġê³¤": 9128,
      "itness": 9129,
      "ĠëįĶë¶Īìĸ´": 9130,
      "Ġë²łë¥´": 9131,
      "ĠJer": 9132,
      "Ġë¯¸ìĪł": 9133,
      "ĠëĵľëŁ¬": 9134,
      "bro": 9135,
      "Ġthous": 9136,
      "Ġìłľì£¼": 9137,
      "ë¡ľê°Ģ": 9138,
      "ĠëĮĢíķ´ìĦľëĬĶ": 9139,
      "ibliography": 9140,
      "Ed": 9141,
      "ĠBah": 9142,
      "Ġtrue": 9143,
      "usion": 9144,
      "wegian": 9145,
      "Ġmoving": 9146,
      "TC": 9147,
      "life": 9148,
      "Ġì§Ģìłģ": 9149,
      "Ġdepartment": 9150,
      "Ġ1925": 9151,
      "istry": 9152,
      "Ġsearch": 9153,
      "ĠìĿĺê²¬": 9154,
      "ĠìĻĶëĭ¤": 9155,
      "ĠPolice": 9156,
      "ĠêµŃë°©": 9157,
      "Ġaccepted": 9158,
      "Ġcarri": 9159,
      "íĽĦìĿĺ": 9160,
      "ëł¥ìľ¼ë¡ľ": 9161,
      "Ġtraffic": 9162,
      "ĠìĭľìĿ¸": 9163,
      "íķ¨ìĿĦ": 9164,
      "ĠìĨĮìĪĺ": 9165,
      "1975": 9166,
      "Ġ75": 9167,
      "íķľëĭ¤ê³ł": 9168,
      "Ġvehicles": 9169,
      "erto": 9170,
      "Ġë¶ģë¶Ģ": 9171,
      "Ġcreation": 9172,
      "æ¼": 9173,
      "Ġroles": 9174,
      "Canadian": 9175,
      "isted": 9176,
      "Ġê°ķíķľ": 9177,
      "Ġ48": 9178,
      "ĠPrime": 9179,
      "ë¸Ĳ": 9180,
      "ëħķ": 9181,
      "estic": 9182,
      "íĭ¸": 9183,
      "ĠBrother": 9184,
      "ns": 9185,
      "Ġê´Ģíķł": 9186,
      "ìĭľë¥¼": 9187,
      "Ġdeclared": 9188,
      "ĠëĦĪë¬´": 9189,
      "ìĦłìĿĢ": 9190,
      "Ġ39": 9191,
      "Ġê²ĥëıĦ": 9192,
      "Ġë¬¸ìłľê°Ģ": 9193,
      "Ġwinner": 9194,
      "ìĽ¨ìĿ´": 9195,
      "je": 9196,
      "ĠFair": 9197,
      "ĠíĽĪëł¨": 9198,
      "elle": 9199,
      "Ġì£½ìĿĢ": 9200,
      "Ġprojects": 9201,
      "Ġë³´ëĭ¤": 9202,
      "ìĿ´ìĤ¬": 9203,
      "Ġpan": 9204,
      "ë¦¬ìĸ´": 9205,
      "ĠKorean": 9206,
      "ĠëĤ©": 9207,
      "Ġarms": 9208,
      "íķĺëĤĺ": 9209,
      "ĠAsian": 9210,
      "resh": 9211,
      "Ġcomment": 9212,
      "ui": 9213,
      "ĊĠĊĠĊ": 9214,
      "ĠBos": 9215,
      "ĠFame": 9216,
      "ĠAthlet": 9217,
      "restling": 9218,
      "1969": 9219,
      "ĠAff": 9220,
      "ëŁ´": 9221,
      "ĠìĿĺìĤ¬": 9222,
      "Ġoffers": 9223,
      "Ġhundred": 9224,
      "''": 9225,
      "mitted": 9226,
      "ĠAbb": 9227,
      "Ġtun": 9228,
      "Ġwins": 9229,
      "Ġcompon": 9230,
      "Ġjoint": 9231,
      "ĠBeach": 9232,
      "Ġmedalists": 9233,
      "Ġë§Īì°¬ê°Ģì§Ģë¡ľ": 9234,
      "Ġpurs": 9235,
      "Ġapproach": 9236,
      "tainment": 9237,
      "ented": 9238,
      "ĠìĪĺê°Ģ": 9239,
      "êµ¬ê°Ģ": 9240,
      "ĠëĤĺíĥĢëĤĺ": 9241,
      "elligence": 9242,
      "ìĭľìĺ¤": 9243,
      "ìłĦíŀĪ": 9244,
      "Ġì¹ĺë£Į": 9245,
      "ë©Ķëĭ¬": 9246,
      "ìłĦìĿ´": 9247,
      "Ġdistricts": 9248,
      "ĠëĮ": 9249,
      "Ġë§ĲìĿĦ": 9250,
      "Ġëª©ìłģìľ¼ë¡ľ": 9251,
      "ëĭ¥": 9252,
      "Ġeconomy": 9253,
      "ĠDec": 9254,
      "ÃĹ": 9255,
      "ëį°ìĿ´": 9256,
      "Ġëª»íķľ": 9257,
      "Ġsn": 9258,
      "Ġmixed": 9259,
      "ĠElizabeth": 9260,
      "è¶": 9261,
      "eral": 9262,
      "ìĬ¤ì¼Ģ": 9263,
      "ĠWars": 9264,
      "ĠìĹ°ìŀ¥": 9265,
      "eather": 9266,
      "ĠBrad": 9267,
      "gn": 9268,
      "Ġurban": 9269,
      "å¤ª": 9270,
      "ĠìĿ´ìļ©íķĺìĹ¬": 9271,
      "Ġê´Ģê³Ħë¥¼": 9272,
      "Ġrecently": 9273,
      "ĠIV": 9274,
      "Ġë¥´": 9275,
      "Ġì¶©ëıĮ": 9276,
      "ĠSher": 9277,
      "ĠMain": 9278,
      "ttp": 9279,
      "ëł¤ê³ł": 9280,
      "ĠìĭľìŀĳíķĺìĺĢëĭ¤": 9281,
      "Ġfiction": 9282,
      "University": 9283,
      "edia": 9284,
      "Ġowner": 9285,
      "ĠBu": 9286,
      "ĠìĿĺìĽĲ": 9287,
      "Ġtal": 9288,
      "Ġbad": 9289,
      "ĠRom": 9290,
      "ê°Ģì¡±": 9291,
      "ĠìĤ¬ìĿ´íĬ¸": 9292,
      "Ġdra": 9293,
      "lections": 9294,
      "ĠSon": 9295,
      "ogs": 9296,
      "Ġìľłë¦¬": 9297,
      "Ġê°ģì¢ħ": 9298,
      "Ġì£¼ìĿ¸ê³µ": 9299,
      "ĠFree": 9300,
      "ĠChris": 9301,
      "International": 9302,
      "Notable": 9303,
      "Ġhop": 9304,
      "Ġë¹¼": 9305,
      "ĠBalt": 9306,
      "Ġëª»íķĺê³ł": 9307,
      "lyn": 9308,
      "ĠGolden": 9309,
      "ëĿ¼ìĹĺ": 9310,
      "ĠìĥĪë¡ľ": 9311,
      "Ġsurrounding": 9312,
      "300": 9313,
      "ĠìĽĲìŀĲ": 9314,
      "Ġë§¹": 9315,
      "Ġvote": 9316,
      "oster": 9317,
      "Ġìĺ¤ë¥´": 9318,
      "ĠMountain": 9319,
      "Ġë°©ìĸ´": 9320,
      "ĠìķĪìłķ": 9321,
      "Ġsyn": 9322,
      "Ġìļ°ìĬ¹ìĿĦ": 9323,
      "Ġpositive": 9324,
      "Ġmemory": 9325,
      "æľ¬": 9326,
      "Ġê°ĢëĬ¥íķľ": 9327,
      "ìĭľíĤ¤ê³ł": 9328,
      "éł": 9329,
      "ĠTaylor": 9330,
      "ĠGro": 9331,
      "Ġì¤ĳê°Ħ": 9332,
      "kin": 9333,
      "ĠHy": 9334,
      "ĠLy": 9335,
      "Ġstreet": 9336,
      "Ġminister": 9337,
      "Ġëĭ¤ë£¨": 9338,
      "Ġidentified": 9339,
      "ĠSciences": 9340,
      "ĠRepresent": 9341,
      "ĠMic": 9342,
      "ĠDown": 9343,
      "ìļ°ì£¼": 9344,
      "1971": 9345,
      "ĠSecretary": 9346,
      "Ġcondition": 9347,
      "aki": 9348,
      "íĸīìľĦ": 9349,
      "ĠIndust": 9350,
      "Ġquality": 9351,
      "ìĦ±ìļ°": 9352,
      "Ġbillion": 9353,
      "omers": 9354,
      "ĠRon": 9355,
      "ĠPlan": 9356,
      "ĠSquadron": 9357,
      "Ġìłľê±°": 9358,
      "ĠOrig": 9359,
      "ëĤ¸ëĭ¤": 9360,
      "Ġë¡¯ëį°": 9361,
      "Ġbackground": 9362,
      "ĠCP": 9363,
      "ìłĦë¬¸": 9364,
      "ĠHay": 9365,
      "Ġtele": 9366,
      "Ġgives": 9367,
      "ĠÄ": 9368,
      "Ġì¤ĳìĹĲìĦľ": 9369,
      "íĶĦê°Ģ": 9370,
      "ĠWat": 9371,
      "Ġë³´ìľł": 9372,
      "Res": 9373,
      "ĠJesus": 9374,
      "çī": 9375,
      "1950": 9376,
      "Ġspread": 9377,
      "incoln": 9378,
      "Ġreference": 9379,
      "Ġdrums": 9380,
      "ĠUs": 9381,
      "à¤": 9382,
      "iques": 9383,
      "Ġattacks": 9384,
      "uese": 9385,
      "Ġformerly": 9386,
      "nce": 9387,
      "Ġserves": 9388,
      "ĠCirc": 9389,
      "ĠDJ": 9390,
      "Ġsays": 9391,
      "ĠíķĢ": 9392,
      "Ġë³¸ìĦł": 9393,
      "ĠTok": 9394,
      "ĠLt": 9395,
      "Ġclassical": 9396,
      "Ġbott": 9397,
      "ĠíĮĮë¦¬": 9398,
      "Ġcaptured": 9399,
      "Ġyouth": 9400,
      "Ġcontemporary": 9401,
      "OC": 9402,
      "ê³±": 9403,
      "ĠëĦ¤íĬ¸ìĽĮíģ¬": 9404,
      "Ġattention": 9405,
      "ĠìĿ¸ìĪĺ": 9406,
      "ĠConc": 9407,
      "Olymp": 9408,
      "ì¡°ìĦłìĿĺ": 9409,
[...]
